#include "activity_model.h"
const int activity_model_len = 13628;
alignas(8) const unsigned char activity_model[] = {
 0x1c, 0x00, 0x00, 0x00, 0x54, 0x46, 0x4c, 0x33, 0x14, 0x00, 0x20, 0x00,
  0x04, 0x00, 0x08, 0x00, 0x0c, 0x00, 0x10, 0x00, 0x14, 0x00, 0x00, 0x00,
  0x18, 0x00, 0x1c, 0x00, 0x14, 0x00, 0x00, 0x00, 0x03, 0x00, 0x00, 0x00,
  0x18, 0x00, 0x00, 0x00, 0x2c, 0x00, 0x00, 0x00, 0xd4, 0x00, 0x00, 0x00,
  0x2c, 0x00, 0x00, 0x00, 0x7c, 0x00, 0x00, 0x00, 0x74, 0x00, 0x00, 0x00,
  0x05, 0x00, 0x00, 0x00, 0xb4, 0x06, 0x00, 0x00, 0xa8, 0x04, 0x00, 0x00,
  0xd8, 0x03, 0x00, 0x00, 0xf8, 0x02, 0x00, 0x00, 0xa0, 0x01, 0x00, 0x00,
  0x01, 0x00, 0x00, 0x00, 0xcc, 0x00, 0x00, 0x00, 0x13, 0x00, 0x00, 0x00,
  0xd8, 0x34, 0x00, 0x00, 0xd4, 0x34, 0x00, 0x00, 0xc4, 0x33, 0x00, 0x00,
  0x38, 0x33, 0x00, 0x00, 0x64, 0x32, 0x00, 0x00, 0xe8, 0x31, 0x00, 0x00,
  0x74, 0x31, 0x00, 0x00, 0x98, 0x0b, 0x00, 0x00, 0x10, 0x0a, 0x00, 0x00,
  0x4c, 0x09, 0x00, 0x00, 0x68, 0x07, 0x00, 0x00, 0xac, 0x34, 0x00, 0x00,
  0xa8, 0x34, 0x00, 0x00, 0xa4, 0x34, 0x00, 0x00, 0xa0, 0x34, 0x00, 0x00,
  0x9c, 0x34, 0x00, 0x00, 0x98, 0x34, 0x00, 0x00, 0x94, 0x34, 0x00, 0x00,
  0x3c, 0x00, 0x00, 0x00, 0x00, 0x00, 0x00, 0x00, 0x01, 0x00, 0x00, 0x00,
  0x0c, 0x00, 0x00, 0x00, 0x08, 0x00, 0x0c, 0x00, 0x04, 0x00, 0x08, 0x00,
  0x08, 0x00, 0x00, 0x00, 0x08, 0x00, 0x00, 0x00, 0x12, 0x00, 0x00, 0x00,
  0x13, 0x00, 0x00, 0x00, 0x6d, 0x69, 0x6e, 0x5f, 0x72, 0x75, 0x6e, 0x74,
  0x69, 0x6d, 0x65, 0x5f, 0x76, 0x65, 0x72, 0x73, 0x69, 0x6f, 0x6e, 0x00,
  0xbe, 0xcc, 0xff, 0xff, 0x04, 0x00, 0x00, 0x00, 0x10, 0x00, 0x00, 0x00,
  0x31, 0x2e, 0x35, 0x2e, 0x30, 0x00, 0x00, 0x00, 0x00, 0x00, 0x00, 0x00,
  0x00, 0x00, 0x00, 0x00, 0x0f, 0x00, 0x00, 0x00, 0x4d, 0x4c, 0x49, 0x52,
  0x20, 0x43, 0x6f, 0x6e, 0x76, 0x65, 0x72, 0x74, 0x65, 0x64, 0x2e, 0x00,
  0x00, 0x00, 0x0e, 0x00, 0x18, 0x00, 0x04, 0x00, 0x08, 0x00, 0x0c, 0x00,
  0x10, 0x00, 0x14, 0x00, 0x0e, 0x00, 0x00, 0x00, 0x14, 0x00, 0x00, 0x00,
  0x58, 0x00, 0x00, 0x00, 0x5c, 0x00, 0x00, 0x00, 0x60, 0x00, 0x00, 0x00,
  0x7c, 0x00, 0x00, 0x00, 0x11, 0x00, 0x00, 0x00, 0x9c, 0x33, 0x00, 0x00,
  0x24, 0x33, 0x00, 0x00, 0x78, 0x32, 0x00, 0x00, 0xf8, 0x31, 0x00, 0x00,
  0x24, 0x31, 0x00, 0x00, 0xbc, 0x30, 0x00, 0x00, 0x48, 0x30, 0x00, 0x00,
  0x6c, 0x0a, 0x00, 0x00, 0xdc, 0x08, 0x00, 0x00, 0x18, 0x08, 0x00, 0x00,
  0x9c, 0x05, 0x00, 0x00, 0x38, 0x04, 0x00, 0x00, 0x8c, 0x03, 0x00, 0x00,
  0xbc, 0x02, 0x00, 0x00, 0xdc, 0x01, 0x00, 0x00, 0x0c, 0x01, 0x00, 0x00,
  0x80, 0x00, 0x00, 0x00, 0x01, 0x00, 0x00, 0x00, 0x00, 0x00, 0x00, 0x00,
  0x01, 0x00, 0x00, 0x00, 0x10, 0x00, 0x00, 0x00, 0x07, 0x00, 0x00, 0x00,
  0x08, 0x05, 0x00, 0x00, 0xcc, 0x03, 0x00, 0x00, 0xfc, 0x02, 0x00, 0x00,
  0x58, 0x02, 0x00, 0x00, 0x5c, 0x01, 0x00, 0x00, 0xa8, 0x00, 0x00, 0x00,
  0x10, 0x00, 0x00, 0x00, 0x04, 0x00, 0x00, 0x00, 0x6d, 0x61, 0x69, 0x6e,
  0x00, 0x00, 0x00, 0x00, 0x7a, 0xff, 0xff, 0xff, 0x00, 0x00, 0x00, 0x09,
  0x04, 0x00, 0x00, 0x00, 0x1c, 0x00, 0x00, 0x00, 0x10, 0x00, 0x00, 0x00,
  0x04, 0x00, 0x00, 0x00, 0xb2, 0xcd, 0xff, 0xff, 0x00, 0x00, 0x80, 0x3f,
  0x01, 0x00, 0x00, 0x00, 0x10, 0x00, 0x00, 0x00, 0x01, 0x00, 0x00, 0x00,
  0x0f, 0x00, 0x00, 0x00, 0x08, 0xfb, 0xff, 0xff, 0x19, 0x00, 0x00, 0x00,
  0x00, 0x00, 0x00, 0x19, 0x01, 0x00, 0x00, 0x00, 0x38, 0xcd, 0xff, 0xff,
  0x14, 0x00, 0x00, 0x00, 0x11, 0x00, 0x00, 0x00, 0x24, 0x00, 0x00, 0x00,
  0x30, 0x00, 0x00, 0x00, 0x10, 0x00, 0x00, 0x00, 0x02, 0x00, 0x00, 0x00,
  0x01, 0x00, 0x00, 0x00, 0x03, 0x00, 0x00, 0x00, 0x02, 0x00, 0x00, 0x00,
  0xff, 0xff, 0xff, 0xff, 0x03, 0x00, 0x00, 0x00, 0x08, 0x00, 0x00, 0x00,
  0x49, 0x64, 0x65, 0x6e, 0x74, 0x69, 0x74, 0x79, 0x00, 0x00, 0x00, 0x00,
  0x24, 0xce, 0xff, 0xff, 0x00, 0x00, 0x0e, 0x00, 0x18, 0x00, 0x08, 0x00,
  0x0c, 0x00, 0x10, 0x00, 0x07, 0x00, 0x14, 0x00, 0x0e, 0x00, 0x00, 0x00,
  0x00, 0x00, 0x00, 0x08, 0x03, 0x00, 0x00, 0x00, 0x18, 0x00, 0x00, 0x00,
  0x0c, 0x00, 0x00, 0x00, 0x04, 0x00, 0x00, 0x00, 0x38, 0xcd, 0xff, 0xff,
  0x01, 0x00, 0x00, 0x00, 0x0f, 0x00, 0x00, 0x00, 0x03, 0x00, 0x00, 0x00,
  0x0e, 0x00, 0x00, 0x00, 0x07, 0x00, 0x00, 0x00, 0x04, 0x00, 0x00, 0x00,
  0xc0, 0xcd, 0xff, 0xff, 0x14, 0x00, 0x00, 0x00, 0x10, 0x00, 0x00, 0x00,
  0x24, 0x00, 0x00, 0x00, 0x68, 0x00, 0x00, 0x00, 0x10, 0x00, 0x00, 0x00,
  0x02, 0x00, 0x00, 0x00, 0x01, 0x00, 0x00, 0x00, 0x03, 0x00, 0x00, 0x00,
  0x02, 0x00, 0x00, 0x00, 0xff, 0xff, 0xff, 0xff, 0x03, 0x00, 0x00, 0x00,
  0x42, 0x00, 0x00, 0x00, 0x63, 0x6e, 0x6e, 0x2d, 0x61, 0x63, 0x74, 0x69,
  0x76, 0x69, 0x74, 0x79, 0x2d, 0x6d, 0x6f, 0x64, 0x65, 0x6c, 0x2f, 0x4f,
  0x75, 0x74, 0x70, 0x75, 0x74, 0x2f, 0x4d, 0x61, 0x74, 0x4d, 0x75, 0x6c,
  0x3b, 0x63, 0x6e, 0x6e, 0x2d, 0x61, 0x63, 0x74, 0x69, 0x76, 0x69, 0x74,
  0x79, 0x2d, 0x6d, 0x6f, 0x64, 0x65, 0x6c, 0x2f, 0x4f, 0x75, 0x74, 0x70,
  0x75, 0x74, 0x2f, 0x42, 0x69, 0x61, 0x73, 0x41, 0x64, 0x64, 0x00, 0x00,
  0xcc, 0xcd, 0xff, 0xff, 0x76, 0xfe, 0xff, 0xff, 0x00, 0x00, 0x00, 0x08,
  0x03, 0x00, 0x00, 0x00, 0x24, 0x00, 0x00, 0x00, 0x18, 0x00, 0x00, 0x00,
  0x0c, 0x00, 0x00, 0x00, 0x00, 0x00, 0x06, 0x00, 0x08, 0x00, 0x07, 0x00,
  0x06, 0x00, 0x00, 0x00, 0x00, 0x00, 0x00, 0x01, 0x01, 0x00, 0x00, 0x00,
  0x0e, 0x00, 0x00, 0x00, 0x03, 0x00, 0x00, 0x00, 0x0d, 0x00, 0x00, 0x00,
  0x06, 0x00, 0x00, 0x00, 0x03, 0x00, 0x00, 0x00, 0x5c, 0xfc, 0xff, 0xff,
  0x09, 0x00, 0x00, 0x00, 0x00, 0x00, 0x00, 0x09, 0x01, 0x00, 0x00, 0x00,
  0x8c, 0xce, 0xff, 0xff, 0x14, 0x00, 0x00, 0x00, 0x0f, 0x00, 0x00, 0x00,
  0x24, 0x00, 0x00, 0x00, 0x88, 0x00, 0x00, 0x00, 0x10, 0x00, 0x00, 0x00,
  0x02, 0x00, 0x00, 0x00, 0x01, 0x00, 0x00, 0x00, 0x19, 0x00, 0x00, 0x00,
  0x02, 0x00, 0x00, 0x00, 0xff, 0xff, 0xff, 0xff, 0x19, 0x00, 0x00, 0x00,
  0x61, 0x00, 0x00, 0x00, 0x63, 0x6e, 0x6e, 0x2d, 0x61, 0x63, 0x74, 0x69,
  0x76, 0x69, 0x74, 0x79, 0x2d, 0x6d, 0x6f, 0x64, 0x65, 0x6c, 0x2f, 0x44,
  0x65, 0x6e, 0x73, 0x65, 0x31, 0x2f, 0x4d, 0x61, 0x74, 0x4d, 0x75, 0x6c,
  0x3b, 0x63, 0x6e, 0x6e, 0x2d, 0x61, 0x63, 0x74, 0x69, 0x76, 0x69, 0x74,
  0x79, 0x2d, 0x6d, 0x6f, 0x64, 0x65, 0x6c, 0x2f, 0x44, 0x65, 0x6e, 0x73,
  0x65, 0x31, 0x2f, 0x52, 0x65, 0x6c, 0x75, 0x3b, 0x63, 0x6e, 0x6e, 0x2d,
  0x61, 0x63, 0x74, 0x69, 0x76, 0x69, 0x74, 0x79, 0x2d, 0x6d, 0x6f, 0x64,
  0x65, 0x6c, 0x2f, 0x44, 0x65, 0x6e, 0x73, 0x65, 0x31, 0x2f, 0x42, 0x69,
  0x61, 0x73, 0x41, 0x64, 0x64, 0x00, 0x00, 0x00, 0xd0, 0xcf, 0xff, 0xff,
  0x00, 0x00, 0x0a, 0x00, 0x10, 0x00, 0x04, 0x00, 0x08, 0x00, 0x0c, 0x00,
  0x0a, 0x00, 0x00, 0x00, 0x02, 0x00, 0x00, 0x00, 0x10, 0x00, 0x00, 0x00,
  0x04, 0x00, 0x00, 0x00, 0x01, 0x00, 0x00, 0x00, 0x0d, 0x00, 0x00, 0x00,
  0x02, 0x00, 0x00, 0x00, 0x0c, 0x00, 0x00, 0x00, 0x05, 0x00, 0x00, 0x00,
  0x38, 0xfd, 0xff, 0xff, 0x16, 0x00, 0x00, 0x00, 0x00, 0x00, 0x00, 0x16,
  0x01, 0x00, 0x00, 0x00, 0x68, 0xcf, 0xff, 0xff, 0x14, 0x00, 0x00, 0x00,
  0x0e, 0x00, 0x00, 0x00, 0x24, 0x00, 0x00, 0x00, 0x48, 0x00, 0x00, 0x00,
  0x10, 0x00, 0x00, 0x00, 0x02, 0x00, 0x00, 0x00, 0x01, 0x00, 0x00, 0x00,
  0x60, 0x00, 0x00, 0x00, 0x02, 0x00, 0x00, 0x00, 0xff, 0xff, 0xff, 0xff,
  0x60, 0x00, 0x00, 0x00, 0x22, 0x00, 0x00, 0x00, 0x63, 0x6e, 0x6e, 0x2d,
  0x61, 0x63, 0x74, 0x69, 0x76, 0x69, 0x74, 0x79, 0x2d, 0x6d, 0x6f, 0x64,
  0x65, 0x6c, 0x2f, 0x66, 0x6c, 0x61, 0x74, 0x74, 0x65, 0x6e, 0x2f, 0x52,
  0x65, 0x73, 0x68, 0x61, 0x70, 0x65, 0x00, 0x00, 0x6c, 0xd0, 0xff, 0xff,
  0x00, 0x00, 0x0e, 0x00, 0x1a, 0x00, 0x08, 0x00, 0x0c, 0x00, 0x10, 0x00,
  0x07, 0x00, 0x14, 0x00, 0x0e, 0x00, 0x00, 0x00, 0x00, 0x00, 0x00, 0x05,
  0x01, 0x00, 0x00, 0x00, 0x3c, 0x00, 0x00, 0x00, 0x30, 0x00, 0x00, 0x00,
  0x14, 0x00, 0x00, 0x00, 0x00, 0x00, 0x0e, 0x00, 0x18, 0x00, 0x17, 0x00,
  0x10, 0x00, 0x0c, 0x00, 0x08, 0x00, 0x04, 0x00, 0x0e, 0x00, 0x00, 0x00,
  0x02, 0x00, 0x00, 0x00, 0x01, 0x00, 0x00, 0x00, 0x02, 0x00, 0x00, 0x00,
  0x01, 0x00, 0x00, 0x00, 0x00, 0x00, 0x00, 0x01, 0x01, 0x00, 0x00, 0x00,
  0x0c, 0x00, 0x00, 0x00, 0x01, 0x00, 0x00, 0x00, 0x0b, 0x00, 0x00, 0x00,
  0x04, 0xfe, 0xff, 0xff, 0x11, 0x00, 0x00, 0x00, 0x00, 0x00, 0x00, 0x11,
  0x01, 0x00, 0x00, 0x00, 0x34, 0xd0, 0xff, 0xff, 0x14, 0x00, 0x00, 0x00,
  0x0d, 0x00, 0x00, 0x00, 0x34, 0x00, 0x00, 0x00, 0x58, 0x00, 0x00, 0x00,
  0x18, 0x00, 0x00, 0x00, 0x04, 0x00, 0x00, 0x00, 0x01, 0x00, 0x00, 0x00,
  0x08, 0x00, 0x00, 0x00, 0x03, 0x00, 0x00, 0x00, 0x04, 0x00, 0x00, 0x00,
  0x04, 0x00, 0x00, 0x00, 0xff, 0xff, 0xff, 0xff, 0x08, 0x00, 0x00, 0x00,
  0x03, 0x00, 0x00, 0x00, 0x04, 0x00, 0x00, 0x00, 0x23, 0x00, 0x00, 0x00,
  0x63, 0x6e, 0x6e, 0x2d, 0x61, 0x63, 0x74, 0x69, 0x76, 0x69, 0x74, 0x79,
  0x2d, 0x6d, 0x6f, 0x64, 0x65, 0x6c, 0x2f, 0x4d, 0x61, 0x78, 0x50, 0x6f,
  0x6f, 0x6c, 0x31, 0x2f, 0x4d, 0x61, 0x78, 0x50, 0x6f, 0x6f, 0x6c, 0x00,
  0x30, 0xd0, 0xff, 0xff, 0xd6, 0xfe, 0xff, 0xff, 0x00, 0x00, 0x00, 0x01,
  0x24, 0x00, 0x00, 0x00, 0x18, 0x00, 0x00, 0x00, 0x04, 0x00, 0x00, 0x00,
  0xc8, 0xfe, 0xff, 0xff, 0x01, 0x00, 0x00, 0x00, 0x01, 0x00, 0x00, 0x00,
  0x00, 0x00, 0x01, 0x01, 0x01, 0x00, 0x00, 0x00, 0x0b, 0x00, 0x00, 0x00,
  0x03, 0x00, 0x00, 0x00, 0x0a, 0x00, 0x00, 0x00, 0x09, 0x00, 0x00, 0x00,
  0x02, 0x00, 0x00, 0x00, 0xdc, 0xd0, 0xff, 0xff, 0x14, 0x00, 0x00, 0x00,
  0x0c, 0x00, 0x00, 0x00, 0x34, 0x00, 0x00, 0x00, 0xd8, 0x00, 0x00, 0x00,
  0x18, 0x00, 0x00, 0x00, 0x04, 0x00, 0x00, 0x00, 0x01, 0x00, 0x00, 0x00,
  0x10, 0x00, 0x00, 0x00, 0x03, 0x00, 0x00, 0x00, 0x04, 0x00, 0x00, 0x00,
  0x04, 0x00, 0x00, 0x00, 0xff, 0xff, 0xff, 0xff, 0x10, 0x00, 0x00, 0x00,
  0x03, 0x00, 0x00, 0x00, 0x04, 0x00, 0x00, 0x00, 0xa3, 0x00, 0x00, 0x00,
  0x63, 0x6e, 0x6e, 0x2d, 0x61, 0x63, 0x74, 0x69, 0x76, 0x69, 0x74, 0x79,
  0x2d, 0x6d, 0x6f, 0x64, 0x65, 0x6c, 0x2f, 0x43, 0x6f, 0x6e, 0x76, 0x32,
  0x44, 0x2d, 0x32, 0x2f, 0x52, 0x65, 0x6c, 0x75, 0x3b, 0x63, 0x6e, 0x6e,
  0x2d, 0x61, 0x63, 0x74, 0x69, 0x76, 0x69, 0x74, 0x79, 0x2d, 0x6d, 0x6f,
  0x64, 0x65, 0x6c, 0x2f, 0x43, 0x6f, 0x6e, 0x76, 0x32, 0x44, 0x2d, 0x32,
  0x2f, 0x42, 0x69, 0x61, 0x73, 0x41, 0x64, 0x64, 0x3b, 0x63, 0x6e, 0x6e,
  0x2d, 0x61, 0x63, 0x74, 0x69, 0x76, 0x69, 0x74, 0x79, 0x2d, 0x6d, 0x6f,
  0x64, 0x65, 0x6c, 0x2f, 0x43, 0x6f, 0x6e, 0x76, 0x32, 0x44, 0x2d, 0x32,
  0x2f, 0x43, 0x6f, 0x6e, 0x76, 0x32, 0x44, 0x3b, 0x63, 0x6e, 0x6e, 0x2d,
  0x61, 0x63, 0x74, 0x69, 0x76, 0x69, 0x74, 0x79, 0x2d, 0x6d, 0x6f, 0x64,
  0x65, 0x6c, 0x2f, 0x43, 0x6f, 0x6e, 0x76, 0x32, 0x44, 0x2d, 0x32, 0x2f,
  0x42, 0x69, 0x61, 0x73, 0x41, 0x64, 0x64, 0x2f, 0x52, 0x65, 0x61, 0x64,
  0x56, 0x61, 0x72, 0x69, 0x61, 0x62, 0x6c, 0x65, 0x4f, 0x70, 0x2f, 0x72,
  0x65, 0x73, 0x6f, 0x75, 0x72, 0x63, 0x65, 0x00, 0x70, 0xd2, 0xff, 0xff,
  0x00, 0x00, 0x0e, 0x00, 0x14, 0x00, 0x00, 0x00, 0x08, 0x00, 0x0c, 0x00,
  0x07, 0x00, 0x10, 0x00, 0x0e, 0x00, 0x00, 0x00, 0x00, 0x00, 0x00, 0x01,
  0x30, 0x00, 0x00, 0x00, 0x24, 0x00, 0x00, 0x00, 0x10, 0x00, 0x00, 0x00,
  0x0c, 0x00, 0x10, 0x00, 0x0e, 0x00, 0x04, 0x00, 0x08, 0x00, 0x0f, 0x00,
  0x0c, 0x00, 0x00, 0x00, 0x01, 0x00, 0x00, 0x00, 0x01, 0x00, 0x00, 0x00,
  0x00, 0x00, 0x01, 0x01, 0x01, 0x00, 0x00, 0x00, 0x0a, 0x00, 0x00, 0x00,
  0x03, 0x00, 0x00, 0x00, 0x00, 0x00, 0x00, 0x00, 0x08, 0x00, 0x00, 0x00,
  0x01, 0x00, 0x00, 0x00, 0x0c, 0x00, 0x10, 0x00, 0x0b, 0x00, 0x00, 0x00,
  0x0c, 0x00, 0x04, 0x00, 0x0c, 0x00, 0x00, 0x00, 0x03, 0x00, 0x00, 0x00,
  0x00, 0x00, 0x00, 0x03, 0x01, 0x00, 0x00, 0x00, 0x3c, 0xd2, 0xff, 0xff,
  0x14, 0x00, 0x00, 0x00, 0x0b, 0x00, 0x00, 0x00, 0x34, 0x00, 0x00, 0x00,
  0xd8, 0x00, 0x00, 0x00, 0x18, 0x00, 0x00, 0x00, 0x04, 0x00, 0x00, 0x00,
  0x01, 0x00, 0x00, 0x00, 0x12, 0x00, 0x00, 0x00, 0x03, 0x00, 0x00, 0x00,
  0x08, 0x00, 0x00, 0x00, 0x04, 0x00, 0x00, 0x00, 0xff, 0xff, 0xff, 0xff,
  0x12, 0x00, 0x00, 0x00, 0x03, 0x00, 0x00, 0x00, 0x08, 0x00, 0x00, 0x00,
  0xa3, 0x00, 0x00, 0x00, 0x63, 0x6e, 0x6e, 0x2d, 0x61, 0x63, 0x74, 0x69,
  0x76, 0x69, 0x74, 0x79, 0x2d, 0x6d, 0x6f, 0x64, 0x65, 0x6c, 0x2f, 0x43,
  0x6f, 0x6e, 0x76, 0x32, 0x44, 0x2d, 0x31, 0x2f, 0x52, 0x65, 0x6c, 0x75,
  0x3b, 0x63, 0x6e, 0x6e, 0x2d, 0x61, 0x63, 0x74, 0x69, 0x76, 0x69, 0x74,
  0x79, 0x2d, 0x6d, 0x6f, 0x64, 0x65, 0x6c, 0x2f, 0x43, 0x6f, 0x6e, 0x76,
  0x32, 0x44, 0x2d, 0x31, 0x2f, 0x42, 0x69, 0x61, 0x73, 0x41, 0x64, 0x64,
  0x3b, 0x63, 0x6e, 0x6e, 0x2d, 0x61, 0x63, 0x74, 0x69, 0x76, 0x69, 0x74,
  0x79, 0x2d, 0x6d, 0x6f, 0x64, 0x65, 0x6c, 0x2f, 0x43, 0x6f, 0x6e, 0x76,
  0x32, 0x44, 0x2d, 0x31, 0x2f, 0x43, 0x6f, 0x6e, 0x76, 0x32, 0x44, 0x3b,
  0x63, 0x6e, 0x6e, 0x2d, 0x61, 0x63, 0x74, 0x69, 0x76, 0x69, 0x74, 0x79,
  0x2d, 0x6d, 0x6f, 0x64, 0x65, 0x6c, 0x2f, 0x43, 0x6f, 0x6e, 0x76, 0x32,
  0x44, 0x2d, 0x31, 0x2f, 0x42, 0x69, 0x61, 0x73, 0x41, 0x64, 0x64, 0x2f,
  0x52, 0x65, 0x61, 0x64, 0x56, 0x61, 0x72, 0x69, 0x61, 0x62, 0x6c, 0x65,
  0x4f, 0x70, 0x2f, 0x72, 0x65, 0x73, 0x6f, 0x75, 0x72, 0x63, 0x65, 0x00,
  0xb8, 0xd2, 0xff, 0xff, 0xca, 0xd3, 0xff, 0xff, 0x04, 0x00, 0x00, 0x00,
  0x80, 0x01, 0x00, 0x00, 0x33, 0xdc, 0x45, 0x3d, 0xee, 0x83, 0x98, 0x3f,
  0x77, 0x41, 0x10, 0x3f, 0x05, 0xe8, 0x29, 0xbd, 0x9b, 0x10, 0x8f, 0x3d,
  0xdf, 0x23, 0xf8, 0xbd, 0xfc, 0x0d, 0xc1, 0x3e, 0xd9, 0x8b, 0x0e, 0x3f,
  0x96, 0x6a, 0x1c, 0xbd, 0x94, 0x90, 0x7c, 0x3f, 0x54, 0x1e, 0xde, 0x3e,
  0x69, 0xf1, 0x31, 0x3e, 0x4f, 0x5f, 0x1a, 0x3d, 0xf8, 0x80, 0xbb, 0xbe,
  0x51, 0x01, 0x25, 0x3f, 0x69, 0xd7, 0x16, 0x3f, 0xbd, 0x73, 0xcb, 0x3d,
  0xa4, 0xec, 0x52, 0x3f, 0x9a, 0xd9, 0xa1, 0x3e, 0x04, 0xde, 0xd9, 0x3e,
  0xe1, 0x76, 0x72, 0xbd, 0x52, 0xff, 0x28, 0x3e, 0x2f, 0x08, 0x87, 0x3e,
  0xf2, 0x5f, 0xd4, 0x3e, 0xc5, 0x73, 0x2a, 0xbd, 0x49, 0xf9, 0x69, 0x3d,
  0xf8, 0xe8, 0x68, 0xbf, 0xe6, 0x61, 0x4f, 0xbf, 0xcb, 0x52, 0x37, 0x3f,
  0x30, 0xc2, 0x0d, 0xbd, 0x9b, 0xc5, 0x80, 0xbf, 0x1b, 0x3d, 0x9c, 0xbf,
  0xf7, 0xd6, 0xc5, 0xbe, 0xa4, 0x27, 0xdc, 0xbe, 0x4c, 0x1a, 0x84, 0xbe,
  0x62, 0x8d, 0x17, 0xbf, 0xc8, 0x57, 0x0d, 0xbd, 0xac, 0x00, 0x3f, 0x3d,
  0xea, 0x70, 0x8d, 0xbe, 0xc6, 0x36, 0xff, 0xbe, 0xcd, 0x6e, 0xd5, 0xbf,
  0x9f, 0x60, 0xd3, 0xbf, 0xcb, 0x41, 0x3c, 0xbe, 0x82, 0x33, 0xcd, 0xbe,
  0x90, 0x29, 0x11, 0x3f, 0x89, 0xb2, 0x86, 0x3e, 0x83, 0x55, 0x9a, 0xbf,
  0x5a, 0x9b, 0x5b, 0xbf, 0xee, 0xfe, 0xd4, 0x3f, 0x33, 0x7e, 0x7f, 0xbf,
  0xb5, 0xf0, 0x7b, 0x3e, 0x2b, 0x7e, 0x1a, 0xbe, 0x09, 0xc5, 0x0b, 0xbe,
  0xb2, 0x58, 0xff, 0x3e, 0xd1, 0x56, 0x87, 0x3e, 0xcf, 0x4d, 0x68, 0x3d,
  0x1a, 0x90, 0x88, 0x3f, 0xb9, 0x55, 0x0f, 0xbc, 0xf8, 0x11, 0x35, 0x3e,
  0x29, 0x33, 0x51, 0xbe, 0x02, 0x3d, 0xc4, 0x3d, 0x3e, 0x7a, 0x5d, 0x3e,
  0x42, 0x4e, 0x1e, 0x3f, 0x67, 0x15, 0x8c, 0x3d, 0x35, 0xea, 0x59, 0x3f,
  0xb7, 0x9d, 0xbc, 0xbe, 0x29, 0xf6, 0x91, 0x3e, 0xf0, 0x22, 0xc3, 0xba,
  0x2c, 0xd5, 0x85, 0xbe, 0xba, 0x5b, 0xdf, 0x3e, 0x54, 0x5c, 0x88, 0x3e,
  0xaf, 0xb4, 0xcc, 0x3e, 0xa2, 0xf7, 0x50, 0xbf, 0x5c, 0x8c, 0x09, 0xbf,
  0xd7, 0x73, 0x33, 0x3d, 0xb2, 0xff, 0x31, 0xbf, 0x8f, 0x27, 0x0a, 0x3f,
  0x1b, 0x58, 0x0a, 0xbe, 0x6c, 0xf5, 0x5a, 0xbf, 0xb7, 0x2e, 0x2e, 0xbf,
  0x5a, 0x00, 0x74, 0xbe, 0x16, 0xe9, 0x36, 0xbe, 0xfd, 0xe0, 0x10, 0xbf,
  0x55, 0x15, 0xfd, 0xbe, 0xb5, 0x53, 0x97, 0x3e, 0x30, 0xe2, 0xf5, 0x3e,
  0x65, 0x3a, 0x11, 0xbf, 0xbd, 0x7f, 0x00, 0xbf, 0xaf, 0xc8, 0xc5, 0xbe,
  0x59, 0xf2, 0x93, 0xbf, 0x68, 0x9e, 0x06, 0xbf, 0xb7, 0xc4, 0x9f, 0xbf,
  0x86, 0x41, 0x4b, 0xbd, 0xb3, 0x97, 0xe5, 0x3e, 0xf2, 0x19, 0x26, 0xbf,
  0xf6, 0xeb, 0x95, 0xbf, 0x22, 0xd5, 0xff, 0xff, 0x10, 0x00, 0x00, 0x00,
  0x0a, 0x00, 0x00, 0x00, 0x1c, 0x00, 0x00, 0x00, 0x40, 0x00, 0x00, 0x00,
  0x04, 0x00, 0x00, 0x00, 0x04, 0x00, 0x00, 0x00, 0x03, 0x00, 0x00, 0x00,
  0x01, 0x00, 0x00, 0x00, 0x08, 0x00, 0x00, 0x00, 0x22, 0x00, 0x00, 0x00,
  0x63, 0x6e, 0x6e, 0x2d, 0x61, 0x63, 0x74, 0x69, 0x76, 0x69, 0x74, 0x79,
  0x2d, 0x6d, 0x6f, 0x64, 0x65, 0x6c, 0x2f, 0x43, 0x6f, 0x6e, 0x76, 0x32,
  0x44, 0x2d, 0x32, 0x2f, 0x43, 0x6f, 0x6e, 0x76, 0x32, 0x44, 0x00, 0x00,
  0x98, 0xd4, 0xff, 0xff, 0xaa, 0xd5, 0xff, 0xff, 0x04, 0x00, 0x00, 0x00,
  0x60, 0x00, 0x00, 0x00, 0xfa, 0x1d, 0x7c, 0x3f, 0xce, 0xc6, 0x01, 0xbe,
  0x95, 0x7f, 0x1c, 0xbf, 0x6d, 0x5c, 0x2e, 0x3f, 0xae, 0x18, 0xb7, 0xbe,
  0x05, 0xd5, 0x0d, 0xbf, 0xc1, 0x2e, 0x18, 0x3f, 0xbe, 0x75, 0xd1, 0x3e,
  0xae, 0xa7, 0xef, 0xbe, 0x5c, 0xdf, 0xc9, 0x3e, 0x74, 0x4b, 0x6d, 0xbe,
  0x7f, 0xba, 0x38, 0xbf, 0x6a, 0x9c, 0x25, 0x3f, 0xcc, 0x58, 0xfd, 0xbe,
  0x76, 0xc9, 0xf7, 0x3c, 0xd3, 0x9a, 0x41, 0x3e, 0xcc, 0xd2, 0x2f, 0x3e,
  0xf2, 0xaa, 0x24, 0x3f, 0x23, 0x26, 0x21, 0xbf, 0xd0, 0xac, 0x02, 0x3e,
  0xc2, 0xf8, 0xfc, 0x3e, 0x19, 0x45, 0x3b, 0xbf, 0x13, 0x7d, 0xf0, 0xbc,
  0x29, 0x40, 0x55, 0x3f, 0xe2, 0xd5, 0xff, 0xff, 0x10, 0x00, 0x00, 0x00,
  0x09, 0x00, 0x00, 0x00, 0x1c, 0x00, 0x00, 0x00, 0x40, 0x00, 0x00, 0x00,
  0x04, 0x00, 0x00, 0x00, 0x08, 0x00, 0x00, 0x00, 0x03, 0x00, 0x00, 0x00,
  0x01, 0x00, 0x00, 0x00, 0x01, 0x00, 0x00, 0x00, 0x22, 0x00, 0x00, 0x00,
  0x63, 0x6e, 0x6e, 0x2d, 0x61, 0x63, 0x74, 0x69, 0x76, 0x69, 0x74, 0x79,
  0x2d, 0x6d, 0x6f, 0x64, 0x65, 0x6c, 0x2f, 0x43, 0x6f, 0x6e, 0x76, 0x32,
  0x44, 0x2d, 0x31, 0x2f, 0x43, 0x6f, 0x6e, 0x76, 0x32, 0x44, 0x00, 0x00,
  0x58, 0xd5, 0xff, 0xff, 0x6a, 0xd6, 0xff, 0xff, 0x04, 0x00, 0x00, 0x00,
  0x2c, 0x01, 0x00, 0x00, 0xfa, 0x10, 0x36, 0xbe, 0x77, 0x0d, 0x39, 0x3e,
  0x29, 0xde, 0xfa, 0x3e, 0xcc, 0xb8, 0xc3, 0xbf, 0x5e, 0x96, 0xa4, 0xbf,
  0xd0, 0xce, 0xa6, 0xbf, 0xa8, 0x74, 0x10, 0x3f, 0xb7, 0x82, 0xcf, 0xbf,
  0x17, 0x31, 0xc1, 0xbf, 0xac, 0xc6, 0xa1, 0xbf, 0x4b, 0x3e, 0x24, 0x3f,
  0x5b, 0x12, 0x94, 0x3e, 0xd2, 0xbf, 0x81, 0x3e, 0x3f, 0x5a, 0x54, 0xbf,
  0x79, 0x47, 0xa2, 0x3e, 0xc7, 0xff, 0xd2, 0xbf, 0x0e, 0x5a, 0x03, 0x3f,
  0x3e, 0xce, 0x9c, 0xbf, 0x7f, 0xb2, 0xff, 0xbf, 0xe3, 0x26, 0x06, 0xbf,
  0x86, 0xa5, 0x0e, 0xbd, 0xb3, 0x5c, 0xa6, 0x3f, 0x3a, 0x6c, 0xcd, 0xbf,
  0x8a, 0x80, 0x29, 0x3f, 0x2a, 0xc1, 0xce, 0x3f, 0xc8, 0x0b, 0x06, 0xc0,
  0x7e, 0xb6, 0xdd, 0xbf, 0x9f, 0xae, 0x24, 0x3d, 0x21, 0x49, 0x69, 0x3f,
  0x5d, 0x72, 0xc6, 0x3e, 0xf1, 0xea, 0xe2, 0x3e, 0x91, 0x0c, 0x17, 0x3f,
  0x3c, 0xa8, 0x2b, 0x3f, 0x87, 0xf3, 0x04, 0x3f, 0xae, 0xf3, 0x73, 0x3f,
  0xd0, 0x84, 0x01, 0x3f, 0x25, 0xfa, 0xe6, 0xbf, 0xfc, 0x9f, 0x00, 0xc0,
  0xe2, 0x80, 0x92, 0x3e, 0x8f, 0x0c, 0xe8, 0xbf, 0x31, 0xbe, 0x2b, 0x3f,
  0x27, 0x1b, 0x1a, 0xbf, 0x53, 0xc9, 0x68, 0x3f, 0x13, 0x4b, 0xd2, 0x3e,
  0x34, 0x9d, 0x10, 0xbf, 0x9a, 0x33, 0xf0, 0xbf, 0x31, 0x83, 0x9b, 0x3e,
  0x8e, 0x4a, 0xf7, 0x3e, 0x77, 0xbc, 0x47, 0x3f, 0x23, 0x95, 0x07, 0xbf,
  0x11, 0xfc, 0x52, 0xbe, 0xea, 0x80, 0xb3, 0x3d, 0xe9, 0x5d, 0x8b, 0xbf,
  0xf9, 0x7f, 0x1a, 0x3f, 0xd1, 0x91, 0x86, 0x3d, 0x9e, 0xb6, 0xd4, 0x3e,
  0x71, 0x1b, 0x2c, 0xbf, 0x4c, 0x3d, 0x1c, 0x3f, 0x24, 0x75, 0x9a, 0x3e,
  0x1a, 0xed, 0x39, 0x3f, 0x92, 0x01, 0x3f, 0xbf, 0x03, 0x3a, 0x91, 0x3e,
  0xca, 0x57, 0x60, 0x3e, 0xfd, 0xeb, 0x8e, 0x3e, 0x40, 0x01, 0x9b, 0x3e,
  0x86, 0x6e, 0x43, 0x3f, 0x69, 0xad, 0x30, 0xbf, 0x63, 0x38, 0x1a, 0x3f,
  0xab, 0x57, 0x0c, 0x3f, 0xb4, 0x21, 0x55, 0x3f, 0x50, 0x59, 0x20, 0xbd,
  0x2f, 0x0f, 0xe8, 0xbf, 0xd7, 0x86, 0x73, 0x3e, 0x09, 0x4a, 0x9a, 0xbe,
  0x90, 0x9e, 0xb1, 0xbf, 0x6e, 0xd7, 0xff, 0xff, 0x10, 0x00, 0x00, 0x00,
  0x08, 0x00, 0x00, 0x00, 0x14, 0x00, 0x00, 0x00, 0x38, 0x00, 0x00, 0x00,
  0x02, 0x00, 0x00, 0x00, 0x03, 0x00, 0x00, 0x00, 0x19, 0x00, 0x00, 0x00,
  0x20, 0x00, 0x00, 0x00, 0x63, 0x6e, 0x6e, 0x2d, 0x61, 0x63, 0x74, 0x69,
  0x76, 0x69, 0x74, 0x79, 0x2d, 0x6d, 0x6f, 0x64, 0x65, 0x6c, 0x2f, 0x4f,
  0x75, 0x74, 0x70, 0x75, 0x74, 0x2f, 0x4d, 0x61, 0x74, 0x4d, 0x75, 0x6c,
  0x00, 0x00, 0x00, 0x00, 0xdc, 0xd6, 0xff, 0xff, 0xee, 0xd7, 0xff, 0xff,
  0x04, 0x00, 0x00, 0x00, 0x80, 0x25, 0x00, 0x00, 0x78, 0x64, 0xb1, 0x3e,
  0x52, 0xa1, 0x93, 0xbd, 0x87, 0x4f, 0xc1, 0x3d, 0xd4, 0x41, 0x66, 0xbe,
  0x23, 0x47, 0x25, 0x3e, 0xe9, 0x3d, 0x1e, 0x3d, 0x8c, 0x98, 0x48, 0xbc,
  0x31, 0x99, 0x09, 0x3d, 0x4b, 0x8c, 0x18, 0x3f, 0x66, 0x56, 0x43, 0xbe,
  0x90, 0x30, 0xbf, 0x3d, 0x7d, 0xc7, 0x48, 0xbe, 0xc1, 0x0d, 0x2a, 0x3f,
  0x05, 0xd7, 0x0c, 0xbe, 0x0e, 0x6d, 0x29, 0x3d, 0xc4, 0xd8, 0xea, 0xbd,
  0xa9, 0x1b, 0xf7, 0x3d, 0x3c, 0xb3, 0x3d, 0xbd, 0x12, 0x0d, 0x41, 0x3d,
  0x0f, 0x50, 0x98, 0xbd, 0x49, 0x43, 0x08, 0x3f, 0x0a, 0x0b, 0x59, 0xbe,
  0x2f, 0x1a, 0x13, 0x3e, 0x74, 0xd2, 0x2e, 0xbe, 0xa8, 0xd0, 0x48, 0x3e,
  0xc1, 0x33, 0x4c, 0xbe, 0x30, 0x4e, 0x25, 0xbd, 0xf8, 0x88, 0x67, 0xbe,
  0x19, 0x70, 0x6c, 0x3e, 0x21, 0x01, 0x07, 0xbe, 0xfb, 0x1d, 0x46, 0x3e,
  0x57, 0xd1, 0x9e, 0xbd, 0x39, 0x1f, 0x05, 0x3f, 0xb7, 0x9f, 0x0d, 0xbd,
  0x1b, 0xe8, 0x79, 0x3d, 0x08, 0x4c, 0xf8, 0xbd, 0x57, 0xff, 0xe7, 0x3e,
  0xfd, 0xb1, 0x15, 0xbe, 0xc5, 0x99, 0xab, 0x3d, 0x18, 0x11, 0x0d, 0xbe,
  0x00, 0x17, 0x86, 0x3e, 0x21, 0x58, 0xfc, 0x3d, 0x74, 0x5a, 0x48, 0x3c,
  0x07, 0xf4, 0x81, 0xbd, 0xa0, 0xdb, 0x0e, 0x3f, 0xe3, 0xf6, 0x6f, 0x3d,
  0x20, 0x2c, 0xba, 0x3d, 0xab, 0x7e, 0x4b, 0xbe, 0xb4, 0x6c, 0x9c, 0x3e,
  0xaa, 0x55, 0x2e, 0xbe, 0x22, 0xe7, 0xf7, 0x3c, 0x63, 0x7b, 0x13, 0xbe,
  0x28, 0xef, 0xea, 0xbc, 0xd5, 0x4d, 0x2c, 0x3d, 0x73, 0x74, 0x7d, 0xbd,
  0x35, 0x6d, 0xeb, 0x3c, 0x6f, 0xc3, 0xec, 0x3e, 0xde, 0xe7, 0x35, 0x3d,
  0xaa, 0x40, 0x1a, 0x3d, 0x0b, 0x05, 0x36, 0x3d, 0x31, 0x51, 0xcb, 0x3e,
  0x90, 0xd6, 0x0a, 0xbe, 0xef, 0x64, 0xef, 0x3c, 0x7b, 0xd6, 0x34, 0xbe,
  0x3d, 0xcf, 0x94, 0x3e, 0xea, 0x86, 0xb9, 0x3d, 0xc7, 0xc4, 0xf1, 0x3d,
  0x75, 0xc2, 0xbd, 0xbb, 0x70, 0x27, 0x31, 0x3f, 0x56, 0xf6, 0x8a, 0xbe,
  0x60, 0xee, 0xe3, 0x3d, 0x44, 0x43, 0x4a, 0xbe, 0xd5, 0xfd, 0x1e, 0x3e,
  0xf6, 0xb6, 0x79, 0xbe, 0xc6, 0xba, 0x4b, 0xbc, 0x43, 0x7b, 0x69, 0xbe,
  0xf0, 0xc1, 0xa5, 0x3c, 0x4e, 0xf6, 0x81, 0xbd, 0x2f, 0xf7, 0x8b, 0x3d,
  0x7c, 0x55, 0x86, 0x3c, 0xb9, 0x0e, 0x15, 0x3f, 0x86, 0xd9, 0x75, 0x3d,
  0xbf, 0xd9, 0x26, 0x3e, 0xa2, 0x5f, 0xdb, 0xbd, 0x95, 0x5b, 0x1a, 0x3f,
  0xca, 0x3c, 0x32, 0xbe, 0x66, 0x06, 0x42, 0xbd, 0xdb, 0x0c, 0x48, 0xbe,
  0x3c, 0xbd, 0x2c, 0x3d, 0xdc, 0x24, 0x26, 0xbd, 0x6f, 0x13, 0x3a, 0x3d,
  0xcf, 0xff, 0xe9, 0xbc, 0x8a, 0x22, 0xfd, 0x3e, 0xf6, 0x5a, 0x03, 0xbd,
  0x7f, 0xfd, 0x99, 0x3b, 0xff, 0x5f, 0x4b, 0x3c, 0xa5, 0xd3, 0xa5, 0x3e,
  0x38, 0x3f, 0xa2, 0xbe, 0xb0, 0x19, 0x49, 0x3d, 0xda, 0x18, 0x98, 0xbe,
  0x88, 0xfe, 0xdf, 0x3d, 0xa3, 0x05, 0xdc, 0x3d, 0x2d, 0x6b, 0x1d, 0x3d,
  0x6e, 0x63, 0xf8, 0xbc, 0xb8, 0x06, 0xe0, 0x3e, 0xd1, 0xe3, 0x86, 0xbf,
  0x1c, 0x8a, 0xf1, 0x3d, 0x13, 0x49, 0xe0, 0xbe, 0x55, 0x2b, 0x07, 0x3f,
  0xfa, 0xc7, 0x87, 0xbe, 0xac, 0xc0, 0x0b, 0x3e, 0xdd, 0x59, 0xe7, 0xbd,
  0xa8, 0xf3, 0xd1, 0xbd, 0x04, 0x94, 0x36, 0x3c, 0x4a, 0x2c, 0x1d, 0x3d,
  0x63, 0x1c, 0xc0, 0xbd, 0x7a, 0xf5, 0xe2, 0x3e, 0x0a, 0x68, 0x0f, 0xbf,
  0x6f, 0x21, 0xa0, 0x3e, 0x26, 0xb5, 0x8f, 0xbe, 0x86, 0x69, 0x66, 0x3e,
  0xa6, 0x46, 0xbf, 0xbe, 0x6b, 0x52, 0x0b, 0x3e, 0x16, 0x4a, 0x5b, 0xbe,
  0x08, 0x7d, 0xd8, 0xbd, 0x72, 0x8f, 0x86, 0x3d, 0xa8, 0xc0, 0xf9, 0xb9,
  0xc4, 0xf4, 0x9f, 0xbd, 0x04, 0x20, 0xd3, 0x3e, 0x29, 0x76, 0x42, 0xbf,
  0x2f, 0x09, 0x52, 0x3e, 0x28, 0xea, 0x9b, 0xbe, 0x68, 0xd2, 0x58, 0x3e,
  0x3f, 0x9a, 0xd8, 0xbe, 0x5d, 0x95, 0x36, 0x3e, 0x85, 0x8d, 0x83, 0xbe,
  0x1f, 0xf4, 0x39, 0xba, 0xbc, 0x2b, 0x45, 0x3d, 0x10, 0xf0, 0xcf, 0x3d,
  0x9f, 0x41, 0x91, 0x3d, 0x19, 0xd8, 0xab, 0x3e, 0xe8, 0x20, 0x79, 0xbf,
  0x45, 0xc4, 0x74, 0x3e, 0x47, 0x4f, 0xc5, 0xbe, 0x85, 0x72, 0xd7, 0x3e,
  0x14, 0x23, 0xaf, 0xbe, 0xee, 0xc5, 0x17, 0x3e, 0x46, 0x0f, 0x4a, 0xbe,
  0x05, 0xb9, 0x33, 0xbd, 0xca, 0x47, 0x2f, 0xbc, 0xad, 0xec, 0xdc, 0x3c,
  0x2e, 0x16, 0x37, 0x3c, 0xa3, 0xcc, 0x03, 0x3f, 0x22, 0x4e, 0x82, 0xbf,
  0x67, 0x5b, 0x5c, 0x3e, 0xd4, 0xd3, 0xab, 0xbe, 0x00, 0x63, 0x3d, 0x3e,
  0x40, 0x82, 0x7c, 0xbe, 0x8a, 0xcf, 0x49, 0x3e, 0x75, 0x41, 0x49, 0xbe,
  0x26, 0xf3, 0x47, 0xbd, 0xbd, 0x00, 0x06, 0xbd, 0xe3, 0xb5, 0x64, 0x3d,
  0x59, 0x54, 0x85, 0xbd, 0x28, 0xb0, 0xb2, 0x3e, 0xa1, 0x5c, 0x9b, 0xbf,
  0xe2, 0x7c, 0x30, 0x3e, 0xdf, 0xc8, 0x6f, 0xbe, 0x97, 0x9c, 0x98, 0x3e,
  0xd6, 0x7a, 0xc4, 0xbe, 0xe4, 0xac, 0x46, 0xbc, 0xc0, 0x6f, 0x71, 0xbe,
  0xe6, 0xd1, 0xce, 0xbd, 0x5a, 0xe6, 0xba, 0x3c, 0xb9, 0xc8, 0x37, 0xbb,
  0x18, 0x10, 0x30, 0xbd, 0x89, 0x3c, 0xad, 0x3e, 0x21, 0x6b, 0x44, 0xbf,
  0xc3, 0x19, 0x3e, 0x3e, 0xcf, 0x81, 0xd7, 0xbe, 0xb2, 0xb2, 0xcc, 0x3e,
  0xa5, 0xf4, 0xe5, 0xbe, 0xcb, 0x1d, 0x45, 0x3e, 0x2f, 0x00, 0xaf, 0xbe,
  0xfb, 0x88, 0xb6, 0xbd, 0xa4, 0xc3, 0x70, 0xbb, 0x49, 0x03, 0xd6, 0x3c,
  0x81, 0xa2, 0xd2, 0xbb, 0x8f, 0x55, 0xc7, 0x3e, 0x86, 0x97, 0x67, 0xbf,
  0x59, 0x43, 0xd7, 0x3d, 0xdc, 0x4f, 0xa9, 0xbe, 0xa0, 0x9f, 0xd6, 0x3b,
  0x90, 0x87, 0x4b, 0xbe, 0x6e, 0xd1, 0xbb, 0x3e, 0x27, 0xc1, 0xd5, 0xbd,
  0xbc, 0xe9, 0x20, 0x3e, 0x28, 0x39, 0x24, 0xbe, 0x63, 0x37, 0x90, 0xbb,
  0x2b, 0xa2, 0x62, 0xbe, 0x1b, 0x51, 0x07, 0xbd, 0x94, 0x9c, 0x96, 0xbf,
  0xae, 0x44, 0xe8, 0xbe, 0x1f, 0xef, 0x88, 0xbf, 0x70, 0xbc, 0x80, 0xbd,
  0x82, 0x30, 0xc5, 0xbe, 0x80, 0x9e, 0xfa, 0x3e, 0xdc, 0x70, 0xb3, 0xbd,
  0x3e, 0x13, 0xd6, 0x3d, 0xc6, 0x9c, 0x8e, 0xbe, 0xfb, 0xb3, 0xa6, 0xbc,
  0x85, 0x4e, 0x31, 0xbe, 0x11, 0x12, 0xd7, 0xbb, 0x45, 0x36, 0xab, 0xbf,
  0x81, 0x24, 0x24, 0xbf, 0xd6, 0x30, 0x93, 0xbf, 0x1c, 0xa3, 0x2e, 0x3d,
  0xeb, 0x42, 0x89, 0xbe, 0x91, 0x9b, 0xf4, 0x3e, 0xf6, 0xbc, 0x13, 0x3e,
  0x2f, 0xa6, 0xf4, 0x3d, 0xcd, 0x06, 0xd4, 0xbe, 0x16, 0x66, 0xdc, 0xbc,
  0xad, 0xed, 0x5a, 0xbe, 0x4f, 0x2e, 0xf2, 0xbb, 0xbf, 0x4b, 0xa3, 0xbf,
  0x9f, 0xfd, 0x08, 0xbf, 0xe4, 0xd2, 0x90, 0xbf, 0xf7, 0xa1, 0x1b, 0xbd,
  0x12, 0xad, 0xa3, 0xbe, 0x65, 0xf8, 0xe8, 0x3e, 0x1e, 0xbf, 0x0c, 0x3c,
  0x1c, 0x18, 0x22, 0x3e, 0xdc, 0x88, 0xbc, 0xbe, 0xde, 0x92, 0x0a, 0x3b,
  0x39, 0xa3, 0x88, 0xbe, 0xab, 0x44, 0xfc, 0xb9, 0x2a, 0xd5, 0xa1, 0xbf,
  0xdc, 0x2f, 0x16, 0xbf, 0x86, 0x58, 0x95, 0xbf, 0x4f, 0x4e, 0x01, 0x3c,
  0x53, 0xca, 0x52, 0xbe, 0xb5, 0x8a, 0xe8, 0x3e, 0x46, 0x95, 0xbc, 0xbc,
  0x58, 0xec, 0x0c, 0x3e, 0xf8, 0x30, 0xb2, 0xbe, 0x38, 0x2c, 0x55, 0x3c,
  0x4c, 0xc9, 0x6b, 0xbe, 0x8e, 0x73, 0x4b, 0x3c, 0x62, 0x39, 0x9d, 0xbf,
  0x71, 0xfb, 0x21, 0xbf, 0xc8, 0xb3, 0x83, 0xbf, 0x3c, 0x29, 0xe4, 0x3c,
  0x90, 0x76, 0xc2, 0xbe, 0x67, 0x75, 0xfc, 0x3e, 0x5a, 0xff, 0x25, 0xbe,
  0xec, 0xb8, 0x01, 0x3e, 0xe9, 0xf2, 0xc8, 0xbe, 0xcf, 0x39, 0x9f, 0xbc,
  0xd1, 0x3d, 0x69, 0xbe, 0x2f, 0x70, 0x1c, 0xbd, 0x39, 0x86, 0x93, 0xbf,
  0xfa, 0x6c, 0x2f, 0xbf, 0x49, 0x42, 0x9a, 0xbf, 0x40, 0x35, 0xf4, 0xbc,
  0x00, 0xe4, 0x67, 0xbe, 0x35, 0x82, 0xd9, 0x3e, 0xe0, 0x2d, 0x0e, 0xbe,
  0xf4, 0x7f, 0xde, 0x3d, 0x40, 0x22, 0x67, 0xbe, 0x34, 0xa5, 0x1f, 0xbc,
  0x8b, 0x84, 0x6f, 0xbe, 0x81, 0xbd, 0x95, 0xbc, 0xf8, 0x2a, 0x9b, 0xbf,
  0x8e, 0x56, 0x1a, 0xbf, 0xcd, 0x41, 0xb0, 0xbf, 0xca, 0x14, 0x4e, 0xbc,
  0x89, 0x74, 0x80, 0xbe, 0x87, 0x5a, 0xb0, 0x3e, 0x0d, 0xb4, 0xef, 0xbd,
  0xd4, 0x19, 0xe6, 0x3d, 0xa5, 0xa4, 0x75, 0xbe, 0x74, 0x06, 0xe7, 0xbc,
  0x5a, 0xed, 0x16, 0xbe, 0xdb, 0xe9, 0xfb, 0xbb, 0x2a, 0x66, 0x92, 0xbf,
  0xdd, 0x47, 0xd6, 0xbe, 0x35, 0xca, 0x8c, 0xbf, 0x2a, 0x28, 0x79, 0x3d,
  0xe2, 0x60, 0xaf, 0x3e, 0xa7, 0xed, 0x30, 0x3e, 0x95, 0x8f, 0x84, 0x3e,
  0x62, 0x63, 0xa2, 0xbf, 0xd2, 0xca, 0x2c, 0x3e, 0xe8, 0x50, 0x99, 0xbe,
  0xfd, 0x80, 0x1e, 0x3e, 0x00, 0xb8, 0x5a, 0x3d, 0x11, 0xc6, 0x0b, 0x3e,
  0xd0, 0xc9, 0x85, 0xbd, 0x42, 0xa3, 0xdc, 0x3d, 0x3d, 0x80, 0xab, 0x3d,
  0x66, 0x2c, 0xde, 0x3e, 0xaa, 0xc9, 0x60, 0x3e, 0xa9, 0xd4, 0x8f, 0x3e,
  0x76, 0x12, 0xaa, 0xbf, 0x50, 0x43, 0x65, 0xbc, 0xd5, 0xf9, 0xa4, 0xbe,
  0x11, 0xa5, 0xbe, 0x3d, 0x71, 0xb8, 0x97, 0x3c, 0x88, 0xa7, 0xe1, 0x3e,
  0xfd, 0x78, 0x0f, 0xbb, 0xff, 0x60, 0x09, 0x3e, 0x68, 0xb7, 0x1e, 0x3d,
  0x1c, 0x93, 0x77, 0x3e, 0x5a, 0x32, 0x5d, 0x3e, 0xa2, 0x1c, 0x80, 0x3e,
  0x7e, 0xdb, 0x90, 0xbf, 0x8f, 0x5f, 0x3a, 0x3e, 0xcd, 0xbe, 0x9f, 0xbe,
  0xa0, 0xb1, 0xfd, 0x3d, 0xb2, 0xd4, 0x5a, 0x3d, 0x4f, 0xe1, 0xa3, 0x3e,
  0xbb, 0x16, 0x82, 0x3d, 0xe6, 0x08, 0x62, 0x3b, 0xa8, 0x6c, 0xe8, 0x3d,
  0x0d, 0x1d, 0xcb, 0x3e, 0xa4, 0xae, 0x97, 0x3e, 0xef, 0x02, 0xc7, 0x3e,
  0xed, 0xd6, 0x7b, 0xbf, 0x36, 0x43, 0x3a, 0x3e, 0x10, 0x08, 0xba, 0xbe,
  0x6c, 0x24, 0x80, 0x3e, 0xe6, 0x08, 0x93, 0x3d, 0xf2, 0x2a, 0x9a, 0x3e,
  0xa5, 0xa3, 0xde, 0x3c, 0x85, 0xff, 0x75, 0x3d, 0xb1, 0xb4, 0x8f, 0x3d,
  0xa9, 0x33, 0xb7, 0x3e, 0xc2, 0x6f, 0x92, 0x3e, 0x81, 0x94, 0xa7, 0x3b,
  0xa6, 0x03, 0x88, 0xbf, 0xeb, 0x7d, 0x74, 0x3e, 0xfa, 0x58, 0x9d, 0xbe,
  0xcb, 0x1d, 0x43, 0x3e, 0x23, 0x18, 0x81, 0x3d, 0xcf, 0xb8, 0x8b, 0x3e,
  0x81, 0x8a, 0x88, 0xbc, 0xd9, 0x40, 0x27, 0xbd, 0x39, 0x57, 0xd8, 0x3d,
  0x85, 0x6f, 0x9d, 0x3e, 0xac, 0xc4, 0x08, 0x3e, 0x16, 0x71, 0xa0, 0x3e,
  0x55, 0x75, 0x97, 0xbf, 0xcf, 0x83, 0x2d, 0x3d, 0x10, 0xea, 0xa7, 0xbe,
  0x7f, 0xf5, 0x1b, 0x3e, 0xf6, 0x98, 0x2b, 0x3d, 0xfe, 0x83, 0x7b, 0x3e,
  0x9a, 0x13, 0xaa, 0x3d, 0xe6, 0xa3, 0x0f, 0x3e, 0xb8, 0xaf, 0xad, 0x3c,
  0xf4, 0x38, 0x16, 0x3e, 0x36, 0x41, 0x8c, 0x3e, 0xc7, 0x21, 0x96, 0x3e,
  0x01, 0xe2, 0x8e, 0xbf, 0x3d, 0x9d, 0xb4, 0x3d, 0xd5, 0x99, 0x9d, 0xbe,
  0x40, 0xbe, 0x4a, 0x3e, 0xb7, 0x06, 0x41, 0x3d, 0x54, 0x2b, 0xc3, 0x3d,
  0xf8, 0xb5, 0x96, 0x3c, 0xa2, 0x2d, 0x92, 0xbd, 0x07, 0x5d, 0xba, 0x3d,
  0x8a, 0xa1, 0x16, 0x3e, 0x99, 0xf4, 0xb4, 0x3e, 0xf5, 0x93, 0x9c, 0x3e,
  0x1d, 0x42, 0x9e, 0xbf, 0x29, 0x7b, 0xed, 0x3d, 0x9d, 0xcc, 0xbe, 0xbe,
  0xae, 0x8b, 0x49, 0x3e, 0x85, 0x75, 0xd8, 0x3d, 0xdd, 0xfd, 0x7b, 0x3e,
  0x50, 0x01, 0xd1, 0xbd, 0xf7, 0xa2, 0x05, 0x3d, 0xca, 0xc2, 0x34, 0xbc,
  0x70, 0xa6, 0x72, 0x3e, 0x60, 0x97, 0xc2, 0x3d, 0xc0, 0xd5, 0x04, 0x3e,
  0x02, 0xbc, 0xda, 0xbf, 0x60, 0xba, 0xa8, 0x3e, 0x80, 0xaf, 0xf3, 0xbd,
  0x7f, 0x02, 0x1c, 0x3e, 0x81, 0xc2, 0xbb, 0x3d, 0xfc, 0xd2, 0x5a, 0x3e,
  0x34, 0x22, 0xe0, 0xbd, 0xae, 0xd1, 0x03, 0x3e, 0x25, 0xac, 0xad, 0x3d,
  0x2e, 0xd4, 0x2c, 0x3e, 0xd8, 0xc0, 0x2f, 0x3e, 0x7c, 0x55, 0x7e, 0x3d,
  0x8e, 0xb0, 0xd1, 0xbf, 0x8f, 0xc6, 0xbd, 0x3e, 0xbb, 0xde, 0x5c, 0xbd,
  0x2f, 0x03, 0x08, 0x3e, 0x2b, 0x93, 0x86, 0x3d, 0x3e, 0x7e, 0x95, 0x3d,
  0xe2, 0x50, 0x8e, 0xbd, 0xe4, 0x27, 0x02, 0x3e, 0xd3, 0x33, 0x64, 0xbc,
  0x46, 0x15, 0xbd, 0x3d, 0x58, 0x6d, 0x5e, 0x3c, 0xfb, 0x94, 0x1c, 0x3d,
  0xb8, 0x31, 0xda, 0xbf, 0x79, 0x74, 0xa4, 0x3e, 0xbc, 0xfb, 0x46, 0xbd,
  0x1c, 0x5e, 0x11, 0x3e, 0x24, 0x3f, 0xc0, 0x3d, 0x8e, 0x40, 0x70, 0x3e,
  0x8b, 0x7f, 0x19, 0x3c, 0xe0, 0xe8, 0xd3, 0x3d, 0xcd, 0xd8, 0x11, 0x3c,
  0xb1, 0x57, 0x5e, 0x3e, 0xc8, 0x13, 0xca, 0x3d, 0x3b, 0x5d, 0xa6, 0x3d,
  0x32, 0x94, 0xdc, 0xbf, 0x02, 0x9c, 0x3e, 0x3e, 0x36, 0xd2, 0x99, 0xbd,
  0x0b, 0x27, 0x0f, 0x3e, 0x0c, 0x39, 0x1a, 0x3e, 0x5f, 0x33, 0xf1, 0xbd,
  0x00, 0x20, 0x80, 0xbd, 0xcc, 0xde, 0x70, 0x3e, 0x7f, 0x89, 0x98, 0xbd,
  0xed, 0xd0, 0x9a, 0x3d, 0x54, 0x6d, 0x26, 0x3e, 0x31, 0xaf, 0x57, 0xbc,
  0x0b, 0x10, 0xe5, 0xbf, 0x06, 0x69, 0xb0, 0x3e, 0xcc, 0xc9, 0x80, 0xbd,
  0xf1, 0xf1, 0x02, 0x3e, 0xfd, 0x3e, 0x00, 0x3e, 0x20, 0xd1, 0x73, 0xbc,
  0x25, 0x59, 0xa3, 0xbd, 0x7c, 0x4f, 0x17, 0x3e, 0xb8, 0x4f, 0x4e, 0xbd,
  0x4d, 0x3a, 0x1c, 0x3c, 0xb1, 0x8a, 0xc7, 0x3d, 0x42, 0x28, 0x4e, 0xbb,
  0xc8, 0x6f, 0xe3, 0xbf, 0x78, 0x1d, 0x86, 0x3e, 0xce, 0x14, 0xa4, 0xbd,
  0x41, 0x5c, 0xd4, 0x3d, 0x20, 0x35, 0xd8, 0x3d, 0x97, 0xda, 0x54, 0xbd,
  0xd6, 0x88, 0x05, 0xbd, 0x60, 0x0d, 0xcb, 0x3c, 0xc8, 0x15, 0x8d, 0x3d,
  0xaa, 0x2f, 0x73, 0x3e, 0xe9, 0x4e, 0xa5, 0x3c, 0x1f, 0xaa, 0x98, 0x3e,
  0x21, 0x3c, 0xd5, 0xbf, 0xde, 0xfa, 0x9a, 0x3e, 0xf6, 0x97, 0xd3, 0xbd,
  0x8c, 0x04, 0x91, 0x3d, 0xfd, 0x1f, 0xcc, 0x3d, 0xac, 0x86, 0x23, 0x3e,
  0xb4, 0xc3, 0x1d, 0xbe, 0x82, 0x30, 0xf1, 0x3d, 0x3c, 0xc3, 0x12, 0x3d,
  0xad, 0x24, 0x33, 0x3e, 0x6f, 0x32, 0x3f, 0x3e, 0x0e, 0xd7, 0xf1, 0x3d,
  0x01, 0x53, 0xd4, 0xbf, 0x47, 0x6b, 0x5b, 0x3e, 0x4a, 0x8f, 0x5b, 0xbd,
  0x3c, 0x9d, 0xd6, 0x3d, 0x2a, 0xa4, 0xbe, 0x3d, 0xa4, 0x7b, 0x21, 0x3c,
  0xd8, 0x8d, 0xbe, 0xbd, 0x89, 0xa6, 0xdc, 0x3d, 0x60, 0x44, 0x9b, 0xbc,
  0x1f, 0x2d, 0xf6, 0x3e, 0x76, 0x33, 0xb9, 0x3e, 0xab, 0x79, 0xe5, 0x3d,
  0xff, 0xd9, 0x19, 0x3e, 0x50, 0xc7, 0x7d, 0xbe, 0xcf, 0xe2, 0xe1, 0x3b,
  0x20, 0xd1, 0x00, 0xbe, 0x0e, 0x71, 0x97, 0xbe, 0x77, 0xe0, 0xc9, 0x3f,
  0xe7, 0xbd, 0x8f, 0xbb, 0xbf, 0xbc, 0xf8, 0x3e, 0x5e, 0x00, 0x15, 0x3d,
  0x66, 0x5b, 0xea, 0x3e, 0x07, 0x37, 0xeb, 0x3e, 0xc0, 0xe5, 0xc6, 0x3d,
  0xbf, 0x4e, 0x18, 0x3e, 0xa9, 0xa8, 0x92, 0xbe, 0xab, 0xeb, 0x50, 0xbc,
  0xad, 0x70, 0xfd, 0xbd, 0xff, 0x88, 0x92, 0xbe, 0x52, 0xcf, 0xcf, 0x3f,
  0x60, 0x15, 0x39, 0xbb, 0x73, 0x45, 0xd8, 0x3e, 0x43, 0x1a, 0x81, 0x3d,
  0xf8, 0xf4, 0xa1, 0x3e, 0x63, 0x73, 0x08, 0x3f, 0x5c, 0x79, 0xa4, 0x3d,
  0x53, 0x88, 0x81, 0x3d, 0xe0, 0xa3, 0x9d, 0xbe, 0xc6, 0x14, 0xb6, 0xbc,
  0x59, 0xe9, 0x2c, 0xbe, 0xc9, 0x02, 0xb1, 0xbe, 0xc5, 0xf6, 0xef, 0x3f,
  0xcb, 0xd1, 0xe7, 0xbc, 0x44, 0xe5, 0xa8, 0x3e, 0x07, 0x45, 0xd8, 0xbd,
  0x25, 0x3e, 0x88, 0x3e, 0x67, 0x76, 0xa7, 0x3e, 0x60, 0xb3, 0x77, 0x3e,
  0x0e, 0xb5, 0xc8, 0x3d, 0x85, 0x03, 0xe9, 0xbd, 0x9a, 0x4e, 0x5d, 0xbb,
  0xa1, 0xb8, 0x4b, 0xbe, 0x17, 0xb5, 0x84, 0xbe, 0xe3, 0xfa, 0xcb, 0x3f,
  0xac, 0x68, 0x18, 0xbd, 0x73, 0x7f, 0xc4, 0x3e, 0xdc, 0x65, 0x45, 0x3d,
  0x79, 0xd4, 0xa5, 0x3e, 0x7f, 0x2d, 0xaa, 0x3e, 0x5a, 0xc3, 0x85, 0x3e,
  0x8a, 0xe0, 0xf8, 0x3d, 0x74, 0x70, 0x96, 0xbd, 0xc0, 0xd2, 0x15, 0xbd,
  0x04, 0xfd, 0x29, 0xbe, 0x73, 0xac, 0x98, 0xbe, 0xdc, 0xfe, 0xdf, 0x3f,
  0x34, 0xbc, 0x22, 0xbd, 0x65, 0x4f, 0x95, 0x3e, 0xe2, 0xae, 0xaf, 0xbc,
  0x3e, 0x88, 0xf2, 0x3e, 0x05, 0x30, 0xe1, 0x3e, 0x90, 0x5e, 0x99, 0x3e,
  0x4d, 0x56, 0xee, 0x3d, 0xbd, 0x04, 0x58, 0xbe, 0x4f, 0xc8, 0x11, 0xbd,
  0x42, 0x5a, 0x2f, 0xbe, 0xc6, 0x81, 0xa0, 0xbe, 0x6a, 0x2c, 0xc1, 0x3f,
  0xeb, 0x62, 0x2f, 0xbd, 0x60, 0x9b, 0x9c, 0x3e, 0x26, 0x39, 0xc3, 0xbd,
  0x21, 0x1e, 0x7d, 0x3e, 0x58, 0x9b, 0x11, 0x3f, 0xab, 0x36, 0x0e, 0x3e,
  0x14, 0x7f, 0x5f, 0x3d, 0xec, 0xb4, 0x0a, 0xbe, 0xd8, 0x93, 0xe0, 0xbc,
  0x1b, 0x29, 0x70, 0xbe, 0x64, 0xdc, 0x65, 0xbe, 0xe9, 0xd8, 0xbd, 0x3f,
  0x92, 0x25, 0x3f, 0x3d, 0x76, 0x5a, 0xe2, 0x3e, 0x48, 0xfe, 0xe5, 0xbc,
  0x00, 0x97, 0xe8, 0x3d, 0x23, 0x1e, 0xe5, 0x3e, 0x21, 0xe4, 0x92, 0x3e,
  0x13, 0x04, 0x1e, 0x3e, 0xe1, 0x06, 0x08, 0xbd, 0x65, 0xe7, 0x36, 0xbd,
  0x96, 0x94, 0x94, 0xbe, 0x1a, 0x05, 0x78, 0xbe, 0xf5, 0x98, 0xe1, 0x3f,
  0x8b, 0x51, 0x79, 0x3d, 0x55, 0x66, 0x86, 0x3e, 0xdc, 0xf4, 0x65, 0xbf,
  0xfb, 0xac, 0x2a, 0x3d, 0x70, 0xcc, 0xb6, 0x3e, 0x2d, 0xff, 0x66, 0x3d,
  0xd0, 0x5e, 0xa7, 0xbe, 0x8e, 0x5a, 0x2b, 0x3e, 0x33, 0x9e, 0x35, 0x3d,
  0x13, 0x35, 0xcd, 0x3d, 0xd6, 0x43, 0xaa, 0xbd, 0x0f, 0xea, 0x93, 0xbe,
  0xb3, 0x5b, 0x97, 0x3e, 0xd8, 0x12, 0xd1, 0xbd, 0x59, 0xec, 0x75, 0xbf,
  0x27, 0x7e, 0x86, 0x3d, 0x50, 0xe4, 0x84, 0x3e, 0xa7, 0xaa, 0xa5, 0x3d,
  0xe0, 0x33, 0xbf, 0xbe, 0x75, 0xf3, 0x01, 0x3e, 0xd4, 0xf3, 0x1e, 0xbc,
  0x82, 0xa5, 0x49, 0x3b, 0x15, 0x73, 0x18, 0x3d, 0xfb, 0xf9, 0xcb, 0xbe,
  0x0d, 0x12, 0xd4, 0x3d, 0x43, 0xbb, 0xd7, 0x3d, 0x67, 0x6d, 0x64, 0xbf,
  0xe1, 0xc1, 0xa9, 0x3d, 0xa9, 0x6f, 0x85, 0x3e, 0x1e, 0x19, 0x0a, 0x3e,
  0x40, 0x51, 0x89, 0xbe, 0xce, 0x58, 0x4f, 0x3e, 0xa7, 0x6a, 0x10, 0xbd,
  0x33, 0xc7, 0xbf, 0xbd, 0xed, 0xf0, 0x49, 0x3d, 0x17, 0x2e, 0x84, 0xbe,
  0xed, 0xcf, 0x91, 0x3e, 0xf6, 0x3e, 0xb7, 0xbd, 0x6d, 0x10, 0x42, 0xbf,
  0x66, 0x47, 0x1e, 0x3e, 0x8d, 0xd4, 0xa9, 0x3d, 0x4d, 0x50, 0x03, 0x3e,
  0x9c, 0xa0, 0xb3, 0xbe, 0x75, 0xcf, 0x10, 0x3e, 0x22, 0x67, 0xf6, 0xbb,
  0xab, 0x43, 0x4a, 0x3c, 0xd2, 0xb2, 0x0b, 0xbd, 0x5c, 0xae, 0xad, 0xbe,
  0x2b, 0x8c, 0x80, 0x3e, 0x37, 0x15, 0x12, 0x3e, 0x10, 0x5b, 0x65, 0xbf,
  0x01, 0x40, 0x8f, 0x3d, 0x5b, 0x2e, 0x7a, 0x3e, 0x76, 0xf4, 0x73, 0x3d,
  0xce, 0xa0, 0x06, 0xbf, 0xcb, 0xef, 0x2c, 0x3e, 0x89, 0x9d, 0x6f, 0xbd,
  0xe1, 0xbd, 0x38, 0xbd, 0xe2, 0x8c, 0x1a, 0xbd, 0x3b, 0x9f, 0xcc, 0xbe,
  0xc0, 0x4a, 0xae, 0x3e, 0xb5, 0x35, 0xfc, 0x3d, 0x50, 0x18, 0x3a, 0xbf,
  0xb7, 0xc3, 0x03, 0x3e, 0xb8, 0x79, 0x29, 0x3e, 0xef, 0x51, 0xd8, 0x3d,
  0xa3, 0x2c, 0x03, 0xbf, 0x17, 0x36, 0x31, 0x3e, 0xd7, 0xcd, 0xda, 0xbc,
  0xb1, 0x38, 0x01, 0x3d, 0x21, 0x86, 0x90, 0xbc, 0x10, 0x99, 0x87, 0xbe,
  0xf3, 0xfd, 0x8b, 0x3e, 0xd9, 0x77, 0x11, 0x3e, 0xd8, 0x62, 0x46, 0xbf,
  0x83, 0xef, 0x01, 0x3e, 0x00, 0x95, 0xbf, 0x3c, 0x16, 0xd0, 0x28, 0x3e,
  0x64, 0xc6, 0xbb, 0xbe, 0x9e, 0x16, 0x18, 0x3e, 0x5b, 0x5a, 0x1d, 0xbd,
  0x9e, 0x88, 0xc0, 0x3c, 0xe4, 0xbc, 0x12, 0x3d, 0x40, 0x0e, 0xbc, 0xbe,
  0xbf, 0x34, 0xcf, 0x3e, 0x8b, 0xef, 0x17, 0x3e, 0x89, 0x68, 0x27, 0xbf,
  0x91, 0xcd, 0x1a, 0x3e, 0x99, 0x88, 0x51, 0x3e, 0xcd, 0x35, 0x30, 0x3e,
  0xd1, 0xd3, 0xfe, 0xbe, 0x31, 0x87, 0x07, 0x3e, 0xaa, 0x0e, 0x98, 0xbc,
  0xcb, 0xe5, 0x32, 0xbc, 0xca, 0xc4, 0x18, 0x3a, 0xdb, 0xf0, 0x65, 0xbe,
  0xa6, 0xf2, 0xa3, 0x3e, 0xcb, 0x7c, 0xce, 0xbd, 0x30, 0x74, 0xee, 0xbd,
  0xde, 0x7a, 0x98, 0x3e, 0x8c, 0xa5, 0xa0, 0xbf, 0xcd, 0x97, 0x9f, 0x3d,
  0x4c, 0xaa, 0x95, 0xbd, 0xc2, 0xbe, 0xaa, 0x3e, 0x57, 0x01, 0x02, 0x3d,
  0xfb, 0x9b, 0xa7, 0x3d, 0xb7, 0xdc, 0x30, 0xbd, 0x67, 0x6a, 0xbb, 0x3f,
  0x93, 0xee, 0x15, 0xbf, 0x6d, 0x5e, 0xb4, 0x3e, 0x38, 0x9b, 0xe8, 0xbc,
  0xec, 0xe2, 0xbd, 0x3e, 0xfe, 0x8e, 0xb1, 0xbf, 0x75, 0x8c, 0x05, 0x3d,
  0xdb, 0x95, 0x8f, 0xbd, 0x4f, 0x97, 0x7f, 0x3e, 0xe4, 0xad, 0x09, 0x3d,
  0x5b, 0xd8, 0x9e, 0x3d, 0xd1, 0x3e, 0x9f, 0xbd, 0x40, 0xaa, 0xde, 0x3f,
  0x0e, 0xcc, 0x14, 0xbf, 0x7c, 0x9b, 0x28, 0x3e, 0x1b, 0xe1, 0x9a, 0xbd,
  0xd0, 0x5c, 0x75, 0x3e, 0xf3, 0x41, 0xa9, 0xbf, 0x4f, 0x32, 0x9c, 0x3d,
  0x67, 0xaa, 0x6d, 0xbd, 0x3c, 0x34, 0xb8, 0x3e, 0xbe, 0x30, 0xca, 0x3c,
  0x3a, 0xfa, 0xcc, 0x3d, 0xd0, 0x0c, 0x85, 0xbd, 0x5d, 0xaa, 0xc3, 0x3f,
  0x72, 0x7e, 0x84, 0xbf, 0xfd, 0x62, 0x5b, 0x3e, 0xa3, 0x5e, 0x28, 0xbd,
  0xf9, 0x45, 0x68, 0x3e, 0xd3, 0x37, 0xa5, 0xbf, 0x8a, 0x72, 0x0a, 0x3e,
  0x8b, 0x0e, 0x9d, 0xbc, 0x5a, 0x27, 0x8c, 0x3e, 0xf7, 0x49, 0x95, 0x3c,
  0xfa, 0xa7, 0xb5, 0x3d, 0xc6, 0xc2, 0x51, 0x3c, 0xae, 0x79, 0xd4, 0x3f,
  0xbb, 0x72, 0x60, 0xbf, 0xe9, 0x7a, 0x58, 0x3e, 0x64, 0x42, 0x72, 0xbd,
  0x00, 0x39, 0x6e, 0x3e, 0x08, 0x77, 0xa2, 0xbf, 0xb0, 0xa4, 0xa4, 0x3d,
  0xcc, 0xbe, 0x8f, 0xbc, 0x7d, 0x66, 0xa0, 0x3e, 0x75, 0x60, 0x0c, 0x3d,
  0x57, 0x48, 0x62, 0x3d, 0x17, 0x3f, 0x6b, 0xbd, 0xac, 0x9c, 0xce, 0x3f,
  0x68, 0x46, 0x7d, 0xbf, 0xa1, 0xfd, 0xdb, 0x3d, 0x3a, 0x3c, 0xaa, 0xbc,
  0x13, 0xa7, 0x78, 0x3e, 0xf4, 0x06, 0xa5, 0xbf, 0xb3, 0xe6, 0xb1, 0x3d,
  0x5f, 0x92, 0x30, 0xbd, 0xb7, 0x5c, 0xc0, 0x3e, 0xd1, 0xd4, 0xb1, 0x39,
  0xaa, 0x49, 0x0b, 0x3e, 0x37, 0x16, 0x23, 0xbd, 0xbb, 0x6e, 0xbb, 0x3f,
  0xb9, 0x30, 0x85, 0xbf, 0x3b, 0x79, 0xdd, 0x3e, 0x9c, 0x99, 0xe2, 0x3c,
  0xfb, 0xeb, 0x88, 0x3e, 0xeb, 0xe3, 0xa4, 0xbf, 0x43, 0xb9, 0xc7, 0x3d,
  0x83, 0x05, 0xc2, 0xbc, 0x01, 0x19, 0xaa, 0x3e, 0xcb, 0x32, 0xae, 0x3b,
  0x02, 0x62, 0xec, 0x3d, 0xe3, 0x5d, 0xe1, 0xbc, 0xb8, 0x01, 0xd3, 0x3f,
  0x36, 0x5f, 0x82, 0xbf, 0x9f, 0x3a, 0x0f, 0x3e, 0xa7, 0xdf, 0x04, 0xbe,
  0x92, 0x17, 0xa4, 0x3e, 0x99, 0x39, 0x9f, 0xbf, 0x9f, 0x39, 0x32, 0x3d,
  0x78, 0x79, 0x90, 0xbd, 0xac, 0x34, 0xac, 0x3e, 0x08, 0xf9, 0xa5, 0x3c,
  0x76, 0x6e, 0xb5, 0x3d, 0x95, 0x68, 0x89, 0xbd, 0x66, 0x04, 0xcb, 0x3f,
  0xe2, 0x85, 0x99, 0xbf, 0x78, 0x82, 0x98, 0x3e, 0xa2, 0x8a, 0xb0, 0x3c,
  0xc0, 0xd0, 0xf3, 0x3e, 0x4c, 0x37, 0xfe, 0xbc, 0xf1, 0x5b, 0xb0, 0x3e,
  0xf9, 0x5d, 0x8e, 0xbf, 0xc1, 0x58, 0x9a, 0x3e, 0xcd, 0x9a, 0x4b, 0xbd,
  0x7f, 0x04, 0x47, 0x3e, 0xf9, 0x77, 0x98, 0x3d, 0xb1, 0xae, 0x68, 0xbe,
  0x99, 0x8b, 0xc7, 0xbc, 0x64, 0x5c, 0x2a, 0xbf, 0x37, 0x22, 0x84, 0x3d,
  0x1c, 0xfb, 0x0b, 0x3f, 0x79, 0x13, 0xaa, 0xbd, 0x9c, 0x35, 0x93, 0x3e,
  0x9e, 0xe7, 0x6d, 0xbf, 0x06, 0x56, 0xc1, 0x3e, 0xbd, 0x89, 0xba, 0xbd,
  0xa9, 0xf0, 0x16, 0x3e, 0x36, 0x24, 0x84, 0x3d, 0x9d, 0x71, 0xa6, 0xbe,
  0x5d, 0x50, 0x51, 0xbc, 0x6b, 0x9b, 0x74, 0xbf, 0xaf, 0xaa, 0x1f, 0xbd,
  0xb4, 0x00, 0xf0, 0x3e, 0x3a, 0x5a, 0x81, 0xbe, 0xc4, 0x74, 0x47, 0x3e,
  0xc3, 0xb7, 0x84, 0xbf, 0x69, 0x8b, 0xa2, 0x3e, 0x67, 0x44, 0xc1, 0xbd,
  0x84, 0x4e, 0xda, 0x3d, 0xfc, 0x36, 0x82, 0x3d, 0x88, 0xa7, 0xad, 0xbe,
  0x60, 0xc2, 0xe4, 0xbb, 0xcc, 0x26, 0x37, 0xbf, 0x1c, 0x57, 0x8c, 0x3d,
  0x1d, 0xa5, 0xde, 0x3e, 0x4d, 0x16, 0x08, 0xbe, 0x2a, 0x9c, 0x13, 0x3e,
  0x3e, 0x2b, 0x8a, 0xbf, 0x9c, 0xb5, 0xd6, 0x3e, 0x37, 0xb4, 0xdf, 0xbd,
  0x66, 0x49, 0x51, 0x3e, 0x2c, 0x9b, 0x81, 0x3d, 0x61, 0x6f, 0xb6, 0xbe,
  0xec, 0xb4, 0x98, 0x3c, 0xd5, 0xfb, 0x40, 0xbf, 0xd1, 0x38, 0x8d, 0x3d,
  0xf6, 0x4f, 0xab, 0x3e, 0xab, 0x93, 0xc7, 0xbd, 0x53, 0xaf, 0xbb, 0x3d,
  0xba, 0x4a, 0x92, 0xbf, 0x9a, 0xb6, 0xb9, 0x3e, 0x76, 0x91, 0xbb, 0xbc,
  0xc9, 0x9f, 0x33, 0x3e, 0x64, 0xa0, 0x1a, 0x3d, 0xa6, 0x50, 0x4e, 0xbf,
  0x2c, 0x3c, 0x28, 0xbd, 0xcd, 0x8b, 0x25, 0xbf, 0xb9, 0x22, 0x03, 0x3d,
  0x02, 0xa3, 0x98, 0x3e, 0x3f, 0xcc, 0x17, 0xbe, 0x84, 0x8d, 0x11, 0x3d,
  0x5a, 0xb5, 0x8b, 0xbf, 0x35, 0xac, 0xc3, 0x3e, 0x36, 0x63, 0x01, 0xbd,
  0x91, 0x18, 0x5b, 0x3e, 0x00, 0x28, 0xce, 0x3d, 0x9b, 0x23, 0x13, 0xbf,
  0x1c, 0xce, 0x9d, 0xbd, 0xf1, 0x3c, 0x15, 0xbf, 0xbb, 0xc8, 0x81, 0x3c,
  0x39, 0x57, 0xae, 0x3e, 0x35, 0x28, 0x28, 0xbd, 0xa9, 0xa4, 0xbe, 0x3d,
  0x2f, 0x8f, 0x92, 0xbf, 0x8d, 0x60, 0xa5, 0x3e, 0x70, 0xe8, 0xc9, 0xbd,
  0xd8, 0x72, 0x44, 0x3e, 0x5c, 0x7e, 0xd2, 0x3d, 0xdf, 0xd1, 0xee, 0xbe,
  0x7d, 0x98, 0xe2, 0xbd, 0xd4, 0xdb, 0x57, 0xbf, 0x68, 0x14, 0xdf, 0x3d,
  0x47, 0xcd, 0x9a, 0x3e, 0xc1, 0x1d, 0x1b, 0xbc, 0x01, 0x05, 0x9a, 0xbe,
  0xc7, 0x0f, 0x7c, 0xbf, 0xa8, 0x07, 0xb3, 0x3e, 0xae, 0x08, 0x0c, 0xbd,
  0xce, 0x0e, 0x5b, 0x3e, 0x11, 0x11, 0xe9, 0x3d, 0xc5, 0x04, 0x12, 0xbf,
  0x12, 0x4c, 0x9f, 0xbd, 0x18, 0xa5, 0x59, 0xbf, 0x03, 0x2b, 0xb1, 0x3b,
  0x43, 0x45, 0x56, 0x3e, 0xba, 0x88, 0xbb, 0x3e, 0x91, 0x3c, 0x94, 0xbd,
  0x8a, 0x0e, 0x13, 0x3d, 0x95, 0xb5, 0xe0, 0x3d, 0xd9, 0xb7, 0x9d, 0xbe,
  0x48, 0x23, 0xbc, 0xbe, 0x7f, 0xab, 0xca, 0xbd, 0x58, 0x30, 0x9a, 0x3f,
  0x63, 0x36, 0x73, 0x3c, 0x53, 0x23, 0x8a, 0x3e, 0x8e, 0xf0, 0x40, 0xbc,
  0xb7, 0x86, 0x64, 0xbe, 0x9d, 0x09, 0x04, 0x3f, 0x7f, 0x47, 0x34, 0x3e,
  0x49, 0x9c, 0x00, 0x3e, 0x27, 0xbe, 0x53, 0xbe, 0xcb, 0xc5, 0x7b, 0xbe,
  0x50, 0x0c, 0x3a, 0xbe, 0xe2, 0x5a, 0x2b, 0xbe, 0xfa, 0xaf, 0x8c, 0x3f,
  0xe8, 0xd4, 0xb8, 0x3c, 0xbc, 0x1e, 0xe6, 0x3e, 0x05, 0x7e, 0xf2, 0xb9,
  0x49, 0xfa, 0x51, 0xbe, 0x3c, 0x4e, 0xe1, 0x3e, 0x34, 0xdc, 0xd3, 0xbd,
  0x14, 0x5e, 0xdd, 0x3d, 0x06, 0xfb, 0x8c, 0xbe, 0x23, 0xce, 0x68, 0xbe,
  0x79, 0xcf, 0xdc, 0xbe, 0xa0, 0x2d, 0xfa, 0xbd, 0xf1, 0x63, 0x80, 0x3f,
  0x45, 0x5b, 0x76, 0x3d, 0x5a, 0xb4, 0xda, 0x3e, 0xef, 0xef, 0x2b, 0x3d,
  0x88, 0xf8, 0x8f, 0xbd, 0x31, 0xb2, 0x06, 0x3f, 0x06, 0xfa, 0xea, 0x38,
  0x58, 0xf5, 0x58, 0x39, 0x6e, 0xf2, 0x06, 0x3e, 0x83, 0x43, 0x7c, 0xbe,
  0xed, 0x82, 0xe3, 0xbe, 0x2d, 0xd0, 0xb0, 0xbd, 0x87, 0x9b, 0x7e, 0x3f,
  0xa0, 0x0d, 0xa4, 0x3d, 0xed, 0x40, 0xd5, 0x3e, 0x0a, 0x20, 0x6b, 0x3d,
  0x77, 0xcd, 0x60, 0xbd, 0x2c, 0x3f, 0x0b, 0x3f, 0xfa, 0xb3, 0x50, 0x3d,
  0x68, 0x63, 0x1b, 0x3d, 0x0c, 0xb9, 0x2a, 0x3d, 0x44, 0x11, 0x4b, 0xbe,
  0x41, 0x6d, 0xb8, 0xbe, 0x06, 0x4d, 0x00, 0xbe, 0x8d, 0xcc, 0x85, 0x3f,
  0x4a, 0xfc, 0x1c, 0x3d, 0xa6, 0x76, 0xa0, 0x3e, 0xe6, 0xaf, 0xb1, 0xbd,
  0xb9, 0x69, 0xa2, 0x3d, 0xd1, 0xbb, 0xe4, 0x3e, 0x9e, 0xf9, 0xd7, 0x3d,
  0x11, 0xd1, 0x86, 0x3d, 0x9a, 0xd4, 0x88, 0xbd, 0x7c, 0xd1, 0x5f, 0xbe,
  0x35, 0xe3, 0x68, 0xbe, 0x59, 0x0c, 0xfb, 0xbd, 0xa9, 0xea, 0x80, 0x3f,
  0xb6, 0x43, 0x83, 0x3d, 0x7a, 0x34, 0xab, 0x3e, 0x49, 0xfe, 0x49, 0x3d,
  0x74, 0x88, 0x67, 0xbd, 0x90, 0xa5, 0x02, 0x3f, 0x4b, 0x21, 0x0c, 0x3d,
  0x0a, 0xe5, 0x5f, 0x3d, 0xc5, 0x9b, 0x63, 0x3d, 0x72, 0xca, 0x68, 0xbe,
  0xcd, 0x96, 0xf3, 0xbe, 0xf2, 0x2c, 0x15, 0xbe, 0xba, 0xf4, 0x99, 0x3f,
  0x6c, 0x69, 0x70, 0x3d, 0xf3, 0x8f, 0xed, 0x3e, 0x65, 0x70, 0xc4, 0x3c,
  0x4d, 0xea, 0x94, 0xbd, 0x27, 0xfb, 0x00, 0x3f, 0xf8, 0xe0, 0x58, 0xbe,
  0xa3, 0x00, 0x85, 0xbc, 0x5e, 0x77, 0x4e, 0x3e, 0x34, 0x02, 0x50, 0xbe,
  0x9a, 0x64, 0x00, 0xbf, 0xa5, 0x77, 0x41, 0xbe, 0x12, 0xc9, 0x86, 0x3f,
  0x95, 0xe1, 0xf8, 0x3c, 0x29, 0xcf, 0x8e, 0x3e, 0x54, 0x1a, 0x38, 0xbf,
  0x7a, 0x45, 0xc1, 0x3d, 0x53, 0xe4, 0xba, 0x3c, 0x5c, 0xb5, 0x76, 0x3d,
  0xd9, 0xcd, 0x77, 0xbe, 0x25, 0x76, 0x22, 0x3e, 0xdf, 0xcf, 0x22, 0x3b,
  0x4b, 0xe3, 0xa2, 0x3d, 0x36, 0x2c, 0xe1, 0x3d, 0x51, 0x4a, 0x02, 0xbf,
  0x81, 0xb4, 0x0b, 0x3e, 0x89, 0x41, 0xa6, 0x3d, 0x61, 0x9c, 0x28, 0xbf,
  0xab, 0xd2, 0x90, 0x3d, 0x35, 0x7d, 0x45, 0x3e, 0x9c, 0xbd, 0x34, 0x3d,
  0xa2, 0xc5, 0x47, 0xbe, 0x83, 0x85, 0x59, 0x3e, 0x93, 0x82, 0xb4, 0x3a,
  0xce, 0x2a, 0xfa, 0x3c, 0x10, 0xa4, 0x3b, 0xbd, 0xfc, 0xc1, 0xc7, 0xbe,
  0x81, 0x0b, 0x79, 0x3e, 0xb8, 0x63, 0xf0, 0xbc, 0x3e, 0x94, 0x26, 0xbf,
  0x0b, 0xa0, 0x95, 0x3d, 0xac, 0xdf, 0x1d, 0x3e, 0x31, 0xbd, 0xbc, 0x3d,
  0xda, 0xeb, 0xc1, 0xbd, 0xa7, 0x98, 0x9e, 0x3d, 0x97, 0x41, 0x0c, 0x3d,
  0xf1, 0x10, 0x36, 0x3d, 0x1e, 0x63, 0xb8, 0x3d, 0xd3, 0x47, 0xf5, 0xbe,
  0xb9, 0x19, 0x8a, 0x3e, 0xef, 0xa1, 0x09, 0x3e, 0xb7, 0x94, 0x21, 0xbf,
  0xd7, 0x6c, 0xf0, 0x3d, 0x89, 0x27, 0x41, 0x3e, 0x58, 0x61, 0x10, 0x3e,
  0x6c, 0x1a, 0x5f, 0xbe, 0x17, 0xa8, 0x0e, 0x3e, 0xb0, 0x2a, 0x31, 0xbc,
  0xb2, 0x62, 0x21, 0x3d, 0x7f, 0x69, 0xa8, 0x3c, 0xd8, 0x2a, 0x05, 0xbf,
  0x61, 0xf4, 0x8d, 0x3e, 0x3d, 0xe6, 0xca, 0x3d, 0x7d, 0x32, 0x42, 0xbf,
  0x02, 0x89, 0x13, 0x3d, 0x09, 0x3f, 0x05, 0x3e, 0x2b, 0x97, 0xcd, 0x3d,
  0x04, 0xf1, 0x0e, 0xbe, 0x49, 0x30, 0x39, 0x3e, 0xbd, 0x10, 0xd0, 0x3c,
  0x67, 0xb1, 0xae, 0xbd, 0x92, 0x8d, 0x07, 0xbd, 0x76, 0xe2, 0xbd, 0xbe,
  0x08, 0xf1, 0x63, 0x3e, 0x6a, 0x9d, 0x24, 0x3c, 0x9c, 0xaf, 0x1d, 0xbf,
  0x51, 0xa5, 0x5c, 0x3d, 0x66, 0xf5, 0x25, 0x3e, 0xf8, 0x07, 0xb1, 0x3d,
  0x14, 0xc3, 0x91, 0xbe, 0x97, 0x6e, 0xa5, 0x3d, 0xd8, 0x7b, 0x2a, 0xbc,
  0xb3, 0xc0, 0xa7, 0xbc, 0x94, 0xfb, 0xb8, 0x3d, 0xd7, 0xe7, 0xe8, 0xbe,
  0x05, 0xb2, 0x7c, 0x3e, 0x2e, 0x0b, 0x65, 0xbd, 0x7b, 0xbc, 0x25, 0xbf,
  0x75, 0x96, 0x14, 0x3e, 0xbd, 0x10, 0x34, 0x3c, 0x45, 0x5f, 0x04, 0x3e,
  0xf2, 0x1e, 0x6a, 0xbe, 0x30, 0xa7, 0x69, 0x3d, 0xa7, 0x64, 0xff, 0x3b,
  0xed, 0x32, 0x0d, 0x3d, 0xbc, 0x5c, 0xde, 0x3d, 0x8f, 0xe3, 0xda, 0xbe,
  0xd0, 0xac, 0xf6, 0x3d, 0xa6, 0x38, 0x23, 0x3d, 0x90, 0xf8, 0x0d, 0xbf,
  0xe5, 0x18, 0x9c, 0x3d, 0x70, 0x76, 0x01, 0xbd, 0xe9, 0x05, 0x55, 0x3e,
  0xa7, 0x32, 0x71, 0xbe, 0x8a, 0xdd, 0x14, 0x3e, 0x98, 0x0c, 0x11, 0xbd,
  0xa1, 0x39, 0x30, 0x3c, 0x21, 0x1e, 0x24, 0x3d, 0x11, 0x5a, 0x52, 0xbe,
  0x2b, 0x5a, 0x6f, 0x3e, 0x84, 0xec, 0xf7, 0xbd, 0xa1, 0x08, 0x4c, 0x3f,
  0x48, 0x60, 0xe1, 0xbc, 0xc6, 0x7b, 0x22, 0xbe, 0x0f, 0x8b, 0x5f, 0xbd,
  0xdb, 0x45, 0x39, 0x3f, 0x9a, 0x79, 0x1c, 0xbe, 0x01, 0x72, 0xe9, 0x3c,
  0x72, 0xe7, 0x41, 0xbc, 0x71, 0x22, 0xde, 0x3e, 0x92, 0x49, 0xa4, 0x3b,
  0xa2, 0xcc, 0x30, 0xbe, 0x23, 0x21, 0x2c, 0xbe, 0xc3, 0xa1, 0x3e, 0x3f,
  0xf3, 0x42, 0x75, 0xbd, 0x1b, 0x27, 0x24, 0xbd, 0x45, 0x6f, 0x65, 0xbc,
  0xb6, 0x89, 0xa1, 0x3f, 0x07, 0x20, 0xee, 0xbd, 0xd6, 0x33, 0xa0, 0xbd,
  0x92, 0x17, 0x30, 0xbd, 0x2f, 0xb6, 0x95, 0x3e, 0x2d, 0x74, 0xd7, 0xbb,
  0xd0, 0xc5, 0x94, 0x3c, 0xf7, 0x87, 0x84, 0xbc, 0xae, 0xa7, 0x4c, 0x3f,
  0x1d, 0x9f, 0xf6, 0xbc, 0x67, 0x35, 0x23, 0xbe, 0x35, 0xf2, 0x16, 0xbd,
  0xc7, 0xce, 0x51, 0x3f, 0x74, 0x6d, 0xb2, 0xbd, 0x5c, 0x23, 0x83, 0x3b,
  0x96, 0xa0, 0xb6, 0x3c, 0xb7, 0xa4, 0x02, 0x3f, 0xc0, 0x39, 0x33, 0x3e,
  0x7c, 0x9d, 0x5a, 0xbe, 0x48, 0x6b, 0xa5, 0xbc, 0x80, 0xd4, 0x26, 0x3f,
  0xc5, 0xef, 0x09, 0xbc, 0x36, 0x9f, 0xfd, 0xbd, 0xb4, 0x84, 0x17, 0xbd,
  0x0d, 0x37, 0x46, 0x3f, 0xf1, 0x36, 0xff, 0xbd, 0xd4, 0xe7, 0x0b, 0x3d,
  0x5d, 0x91, 0x34, 0x3c, 0x05, 0x67, 0xbb, 0x3e, 0x82, 0x74, 0x40, 0xbd,
  0x66, 0x3d, 0x9f, 0xbe, 0xd3, 0xa7, 0x01, 0xbe, 0x38, 0x41, 0x13, 0x3f,
  0x19, 0x56, 0x72, 0x3c, 0x0d, 0x5c, 0xe8, 0x3c, 0x69, 0xab, 0x04, 0xbd,
  0xa9, 0xbe, 0x78, 0x3f, 0xb6, 0xba, 0x49, 0xbd, 0x3b, 0xa9, 0x73, 0xbc,
  0x12, 0xa8, 0xd1, 0xbc, 0xea, 0xdd, 0xf0, 0x3e, 0x63, 0x11, 0xb1, 0x3d,
  0xaf, 0xd4, 0x2f, 0xbe, 0x5e, 0xb2, 0x99, 0xbd, 0xf3, 0xeb, 0x38, 0x3f,
  0x6d, 0xdb, 0x97, 0xbd, 0x6c, 0x4c, 0xc3, 0xbd, 0x7e, 0x5c, 0xea, 0xbb,
  0xe1, 0xf9, 0x28, 0x3f, 0x34, 0x61, 0x76, 0xbd, 0x69, 0xa9, 0x84, 0xbc,
  0x3d, 0xa8, 0x14, 0x3d, 0x9e, 0x34, 0xfc, 0x3e, 0x55, 0x3a, 0xf4, 0x3d,
  0x60, 0x60, 0x7f, 0xbe, 0x21, 0xc7, 0x8b, 0xb9, 0x5a, 0xff, 0x3f, 0x3f,
  0xfa, 0x4f, 0x23, 0xbd, 0x91, 0xe2, 0x03, 0xbe, 0xd2, 0xef, 0x97, 0xbd,
  0x6d, 0x00, 0x11, 0x3f, 0xa5, 0x7e, 0xad, 0xbd, 0x5b, 0x3d, 0xbd, 0x3c,
  0x26, 0x62, 0x16, 0xbd, 0xed, 0xfe, 0xa7, 0x3e, 0x70, 0xa6, 0xb2, 0xbc,
  0x0f, 0x0e, 0x8f, 0xbe, 0xa4, 0x9d, 0x2d, 0xbc, 0xb4, 0x15, 0x4d, 0x3f,
  0xea, 0x0a, 0x82, 0xbd, 0x35, 0x2e, 0xfc, 0xbd, 0xd0, 0x99, 0xe7, 0xbd,
  0xc2, 0x4f, 0x60, 0x3f, 0x36, 0xf4, 0xc2, 0xbd, 0xb6, 0xdd, 0x7e, 0x3d,
  0xd4, 0xb2, 0xa9, 0x3b, 0xb4, 0x3c, 0x07, 0x3f, 0xf0, 0xb2, 0x24, 0x3e,
  0x85, 0xd9, 0x5e, 0xbc, 0x51, 0xdc, 0xee, 0xbc, 0x7c, 0xe2, 0x49, 0x3f,
  0x63, 0x8f, 0xcb, 0xbc, 0xf4, 0x92, 0x1f, 0xbc, 0xf2, 0x80, 0x80, 0xbd,
  0x3a, 0x0b, 0x54, 0x3f, 0x7c, 0xe2, 0xbf, 0xbd, 0x19, 0x69, 0xf7, 0x3c,
  0x8f, 0x43, 0x9c, 0xbc, 0xab, 0xbb, 0xa3, 0x3e, 0x58, 0xe2, 0xc8, 0xbd,
  0x96, 0x6d, 0x1f, 0xbe, 0x2c, 0x04, 0xd5, 0xbd, 0x7c, 0x69, 0x4e, 0x3f,
  0x75, 0xc4, 0xa1, 0xbd, 0x4b, 0x21, 0xa7, 0x3b, 0xbb, 0xf7, 0x3c, 0xbd,
  0x87, 0x5e, 0x74, 0x3f, 0x3f, 0x8b, 0xd4, 0xbd, 0x45, 0x43, 0x57, 0x3c,
  0xf1, 0xe7, 0x06, 0x3d, 0x3b, 0x32, 0xb3, 0x3e, 0xa7, 0x31, 0x47, 0x3d,
  0x7b, 0xc3, 0xcd, 0xbd, 0xd1, 0xae, 0x0a, 0xbb, 0xd6, 0x21, 0x59, 0x3f,
  0x16, 0x3b, 0x46, 0xbd, 0x05, 0x07, 0x62, 0xbd, 0x26, 0xff, 0x3b, 0xbd,
  0x94, 0xff, 0x86, 0x3f, 0xeb, 0xd5, 0x69, 0xbd, 0x0a, 0x3c, 0xab, 0xbc,
  0x52, 0x49, 0x01, 0xbd, 0x31, 0xc6, 0xe2, 0x3e, 0x58, 0x18, 0x0e, 0x3e,
  0x1a, 0xe2, 0xa5, 0xbd, 0xd1, 0x76, 0x10, 0x3d, 0xc2, 0x05, 0x66, 0x3f,
  0x59, 0x9e, 0xa1, 0xbc, 0x77, 0x0b, 0xe0, 0xbd, 0x23, 0xa2, 0x80, 0x3c,
  0x44, 0x48, 0x71, 0x3f, 0x2c, 0x95, 0x95, 0xbd, 0x51, 0x8c, 0xc4, 0x3c,
  0xbd, 0xa2, 0x6d, 0x3c, 0xc2, 0x51, 0xfc, 0x3e, 0x0a, 0x89, 0x1f, 0x3b,
  0xc1, 0x5d, 0xdf, 0xbd, 0x71, 0x98, 0x30, 0x3c, 0x61, 0xd9, 0x4e, 0x3f,
  0xab, 0xc7, 0x0f, 0xbd, 0x50, 0x46, 0x83, 0xbd, 0xa9, 0xa4, 0xde, 0xbc,
  0xae, 0x0f, 0x9d, 0x3f, 0xaf, 0x3d, 0x9d, 0xbc, 0xc2, 0x21, 0x9a, 0xbc,
  0x23, 0x41, 0x8f, 0xbc, 0x1e, 0xe7, 0xe2, 0x3e, 0x32, 0x5d, 0x5b, 0x3c,
  0x7a, 0x22, 0x02, 0x3b, 0x40, 0x08, 0xb8, 0xbd, 0x76, 0xfe, 0x4a, 0x3f,
  0xcc, 0xd9, 0xa9, 0xbd, 0x27, 0x9b, 0xa5, 0xbc, 0x75, 0xc0, 0x50, 0xbc,
  0x8e, 0x90, 0x64, 0x3f, 0xe4, 0xb9, 0x47, 0xbd, 0xa8, 0xcd, 0x65, 0xbb,
  0x7c, 0x75, 0x0c, 0x3d, 0xc2, 0xde, 0xd0, 0x3e, 0x4c, 0xa9, 0x8b, 0xbd,
  0x72, 0xe9, 0xeb, 0x3d, 0xa1, 0x7b, 0xc4, 0x3d, 0xab, 0x57, 0x7a, 0x3f,
  0x2e, 0x40, 0x4a, 0x3c, 0xa2, 0xe5, 0xec, 0xbd, 0x05, 0xcf, 0xa6, 0xbd,
  0xdd, 0xda, 0x7a, 0x3f, 0xb8, 0xf3, 0xcf, 0xbd, 0xe0, 0x51, 0x8e, 0xbd,
  0x7e, 0xe9, 0xb2, 0xbc, 0x0c, 0x0d, 0xd0, 0x3e, 0x7e, 0xb2, 0x97, 0x3d,
  0x30, 0xa2, 0x9e, 0xbe, 0xa6, 0x9b, 0x40, 0xbd, 0x20, 0x90, 0x31, 0x3f,
  0xc6, 0x23, 0xbb, 0xbc, 0x7c, 0x50, 0x1f, 0xbe, 0xf7, 0x69, 0xb4, 0xbd,
  0xf5, 0xa5, 0x6d, 0x3f, 0xb2, 0x24, 0x9b, 0xbc, 0xb7, 0x18, 0xbe, 0x3c,
  0x8c, 0xbd, 0x1e, 0x3d, 0x24, 0xe7, 0xee, 0x3e, 0x46, 0xcf, 0x43, 0x3d,
  0x64, 0x8f, 0xc4, 0xbd, 0x5a, 0x22, 0xe4, 0xbd, 0x65, 0x10, 0xba, 0xbd,
  0x38, 0xf9, 0x03, 0x3f, 0xdc, 0x8d, 0x32, 0x3e, 0x78, 0xa1, 0x80, 0x3e,
  0xfd, 0xeb, 0x34, 0x3e, 0x3c, 0x52, 0x56, 0xbf, 0xa6, 0xc0, 0xd8, 0xbc,
  0x84, 0xb8, 0xad, 0xbd, 0xf2, 0x29, 0x04, 0xbf, 0x39, 0x99, 0x25, 0x3f,
  0xd3, 0xce, 0x91, 0x3d, 0x50, 0x7b, 0x90, 0x3e, 0x09, 0x80, 0xb6, 0xbd,
  0x50, 0x2c, 0xbe, 0x3e, 0xa5, 0x24, 0x97, 0x3e, 0x2c, 0xf4, 0x47, 0x3e,
  0x35, 0xd8, 0x21, 0x3e, 0x55, 0x9c, 0x19, 0xbf, 0x52, 0x34, 0xa8, 0xbc,
  0xe8, 0xcd, 0xf8, 0x3d, 0x6d, 0x49, 0x03, 0xbf, 0x79, 0x44, 0x06, 0x3f,
  0x68, 0xa4, 0x2e, 0x3d, 0xa8, 0x99, 0xae, 0x3e, 0xf1, 0x4a, 0xd2, 0xbd,
  0x4d, 0x16, 0xac, 0x3e, 0x82, 0xad, 0xae, 0x3e, 0x1d, 0xef, 0x14, 0x3e,
  0x9c, 0x4a, 0x85, 0x3e, 0xa8, 0x10, 0x0a, 0xbf, 0x23, 0xe5, 0xd6, 0xbc,
  0x9b, 0x6a, 0x59, 0xbd, 0xa5, 0x23, 0x07, 0xbf, 0xd4, 0x37, 0x40, 0x3f,
  0xb4, 0x25, 0x28, 0x3d, 0x0f, 0x16, 0xc9, 0x3e, 0x2e, 0xc7, 0xcc, 0xbc,
  0x78, 0x35, 0x4d, 0x3e, 0xed, 0xbc, 0x21, 0x3e, 0x1d, 0xdb, 0x36, 0x3e,
  0x2c, 0x93, 0x22, 0x3e, 0xb3, 0x90, 0x7d, 0xbf, 0x1f, 0x58, 0x5d, 0xbd,
  0xfc, 0x9b, 0xca, 0xbd, 0xd4, 0xd9, 0x10, 0xbf, 0xbf, 0x71, 0x41, 0x3f,
  0xe7, 0x49, 0x42, 0x3d, 0x21, 0xd9, 0xeb, 0x3e, 0x73, 0x3a, 0xa4, 0xbc,
  0xa7, 0x70, 0xae, 0x3e, 0xb4, 0x69, 0x5a, 0x3e, 0x28, 0xc1, 0x89, 0x3e,
  0x1c, 0x4f, 0x01, 0x3e, 0xe4, 0x4d, 0x30, 0xbf, 0xa9, 0xa0, 0x90, 0xbd,
  0xa3, 0xa6, 0x83, 0x3c, 0xd4, 0xbd, 0xf1, 0xbe, 0x76, 0xc8, 0x3b, 0x3f,
  0xaa, 0xcc, 0xea, 0xbc, 0x8c, 0x2c, 0x9e, 0x3e, 0x70, 0x62, 0x3d, 0xbd,
  0x8c, 0x84, 0x00, 0x3f, 0x2d, 0x05, 0x02, 0x3e, 0x44, 0x60, 0x4d, 0x3e,
  0x73, 0x94, 0x2c, 0x3e, 0x93, 0x3a, 0x5a, 0xbf, 0x27, 0x17, 0x4b, 0xbd,
  0xc0, 0xa6, 0xb7, 0xbd, 0x30, 0x99, 0x09, 0xbf, 0xaa, 0xa2, 0x4c, 0x3f,
  0xba, 0x90, 0x10, 0x3d, 0xa5, 0x59, 0xd0, 0x3e, 0xe2, 0x4f, 0x63, 0xbd,
  0x72, 0x11, 0xb5, 0x3e, 0x9f, 0x84, 0x0d, 0x3e, 0xb8, 0x68, 0x57, 0x3e,
  0x49, 0xa7, 0x81, 0x3e, 0x34, 0x4d, 0x2f, 0xbf, 0x8c, 0x69, 0x7f, 0xba,
  0x70, 0xc1, 0x49, 0xbd, 0x99, 0x91, 0x06, 0xbf, 0xb9, 0xed, 0x21, 0x3f,
  0x51, 0xf4, 0x32, 0x3d, 0xf3, 0x09, 0xa5, 0x3e, 0x52, 0x47, 0x99, 0x3c,
  0x63, 0x19, 0x3b, 0x3e, 0x50, 0xb4, 0x99, 0x3e, 0x6a, 0xf5, 0x30, 0x3e,
  0xeb, 0xc3, 0x40, 0x3e, 0x83, 0x99, 0x46, 0xbf, 0xeb, 0xed, 0x92, 0x3c,
  0x65, 0xc4, 0x1b, 0xbe, 0xfb, 0xa3, 0x06, 0xbf, 0xca, 0x27, 0x1e, 0x3f,
  0xf0, 0x26, 0xd7, 0x3c, 0x61, 0x6a, 0xaf, 0x3e, 0x18, 0x49, 0x1d, 0x3f,
  0xb2, 0x0b, 0xc1, 0xbd, 0xa3, 0xca, 0x04, 0xbd, 0xe0, 0x7b, 0x58, 0xbd,
  0x05, 0x69, 0x71, 0x3f, 0x38, 0xc7, 0xbd, 0xbd, 0x3a, 0x31, 0xa7, 0x3d,
  0x4f, 0x27, 0x09, 0xbc, 0xe9, 0x51, 0xfe, 0x3e, 0x2d, 0x3d, 0x84, 0xbd,
  0x6e, 0x78, 0x98, 0xbd, 0x1f, 0xd9, 0x02, 0xbd, 0x2a, 0x65, 0x67, 0x3f,
  0xdc, 0xd9, 0x2b, 0xbd, 0x9a, 0x19, 0x17, 0xbd, 0xaa, 0x75, 0x39, 0xbd,
  0x09, 0xf6, 0x24, 0x3f, 0x88, 0x69, 0x6a, 0xbd, 0xc9, 0x08, 0xa4, 0x3c,
  0xc0, 0xe8, 0xb2, 0xb9, 0x8d, 0x80, 0xaf, 0x3e, 0x9a, 0x55, 0xb0, 0xbb,
  0xc1, 0x25, 0xd2, 0xbd, 0x10, 0xe7, 0x17, 0xbd, 0xcd, 0x24, 0x44, 0x3f,
  0x8e, 0x40, 0xbe, 0xbc, 0x40, 0xe7, 0xeb, 0xbd, 0x0e, 0xb2, 0x9c, 0xbd,
  0xc0, 0xda, 0x6b, 0x3f, 0x7b, 0x83, 0x7e, 0xbd, 0x22, 0x53, 0x3a, 0xbd,
  0x59, 0xc9, 0x20, 0xbc, 0x82, 0xa6, 0xe7, 0x3e, 0xaf, 0xb9, 0xbd, 0x3d,
  0x30, 0x62, 0x15, 0x3d, 0xdd, 0x74, 0x10, 0xbd, 0xf9, 0x6e, 0x38, 0x3f,
  0x5f, 0x0a, 0x05, 0xbc, 0xc5, 0x25, 0x97, 0xbd, 0xc5, 0xa2, 0x98, 0xbc,
  0xa0, 0x4e, 0xa4, 0x3f, 0x6f, 0x1a, 0xa8, 0xbd, 0x0e, 0xad, 0x75, 0x3d,
  0xca, 0xb3, 0x89, 0x39, 0xfe, 0x0a, 0xef, 0x3e, 0x66, 0xe4, 0x6a, 0xbc,
  0x0e, 0x1b, 0x0f, 0xbd, 0xc0, 0xa1, 0xf5, 0x3c, 0x9f, 0x64, 0x19, 0x3f,
  0x02, 0xd4, 0x2f, 0xbc, 0x60, 0x5b, 0x11, 0xbd, 0x66, 0x53, 0x27, 0xbd,
  0x06, 0x5b, 0x18, 0x3f, 0x3d, 0x38, 0x78, 0xbc, 0x5e, 0xad, 0xc0, 0xbc,
  0x00, 0x2e, 0x89, 0xbc, 0x41, 0xe9, 0xe4, 0x3e, 0x6e, 0x2b, 0x8a, 0xbc,
  0x57, 0x44, 0x9b, 0x3c, 0x75, 0xfd, 0xa9, 0xbd, 0x27, 0x7a, 0x30, 0x3f,
  0xbb, 0x49, 0xcc, 0xbd, 0x71, 0x21, 0x20, 0xbe, 0x3d, 0x3d, 0x19, 0xbc,
  0xa7, 0xc2, 0x7e, 0x3f, 0xbf, 0x09, 0x03, 0xbd, 0x2c, 0x5f, 0xc6, 0x3b,
  0x14, 0xdd, 0x19, 0xbd, 0x32, 0x6f, 0xd0, 0x3e, 0x47, 0xb1, 0xbb, 0x3d,
  0x0d, 0xe5, 0x26, 0x3e, 0x9a, 0xe0, 0x18, 0x3d, 0xfd, 0x69, 0x4d, 0x3f,
  0x74, 0x34, 0xc7, 0xbd, 0x17, 0xb2, 0xe6, 0xbd, 0x03, 0xcf, 0xaa, 0xbd,
  0x6f, 0x99, 0x6a, 0x3f, 0x06, 0xa0, 0xdd, 0xbc, 0x80, 0x09, 0x24, 0xbd,
  0x29, 0x01, 0xb9, 0xbc, 0x70, 0x28, 0xb5, 0x3e, 0xdb, 0x30, 0x02, 0xbd,
  0xa0, 0xd8, 0x64, 0xbd, 0x9c, 0x1c, 0x40, 0x3d, 0x33, 0xfe, 0x3e, 0x3f,
  0xb7, 0x46, 0x85, 0xbd, 0x44, 0xdc, 0x79, 0xbc, 0x23, 0x14, 0x63, 0xbc,
  0x88, 0x4a, 0x53, 0x3f, 0xca, 0x1d, 0xe6, 0xbd, 0x80, 0x2a, 0xee, 0xbb,
  0x36, 0xa4, 0xe4, 0xbc, 0xbc, 0xec, 0x04, 0x3f, 0xc6, 0x87, 0xa7, 0x3d,
  0x0b, 0x6a, 0x06, 0xbe, 0x55, 0x00, 0x97, 0xbd, 0x90, 0xef, 0xfd, 0xbc,
  0xc1, 0x4c, 0x4f, 0x3e, 0xd0, 0x27, 0xd9, 0xbf, 0x11, 0x62, 0x7e, 0xbd,
  0x43, 0xed, 0x12, 0xbd, 0xb4, 0x55, 0x87, 0x3e, 0x1e, 0x89, 0x25, 0x3c,
  0x28, 0x69, 0x37, 0x3e, 0x1b, 0xbb, 0xa3, 0x3a, 0xe8, 0x8b, 0xca, 0x3f,
  0x5b, 0x1d, 0x90, 0xbf, 0x6d, 0x0f, 0xd2, 0x3d, 0xd7, 0x41, 0x92, 0xbd,
  0xd8, 0x46, 0x65, 0x3e, 0xff, 0xa1, 0xd8, 0xbf, 0xae, 0x4a, 0xc6, 0xbd,
  0x77, 0x1f, 0x37, 0xbd, 0x1f, 0xc4, 0x9a, 0x3e, 0x7f, 0x1b, 0x35, 0x3d,
  0x91, 0xdb, 0x9a, 0x3d, 0x7a, 0xd1, 0xc7, 0xbc, 0x47, 0x65, 0xc3, 0x3f,
  0x76, 0x4e, 0xb4, 0xbf, 0xe8, 0xfd, 0x11, 0x3e, 0x9d, 0xba, 0x2a, 0xbd,
  0x6e, 0x3a, 0x28, 0x3e, 0x6c, 0x86, 0xe5, 0xbf, 0xf1, 0xc4, 0x9f, 0x3d,
  0x5c, 0x9c, 0x51, 0xbd, 0xf7, 0xeb, 0x9a, 0x3e, 0x72, 0x5b, 0x29, 0x3d,
  0x90, 0x09, 0x1f, 0x3e, 0x3c, 0x93, 0x60, 0xbd, 0x4c, 0x47, 0xb7, 0x3f,
  0xa9, 0xa1, 0xa8, 0xbf, 0xa6, 0x42, 0x09, 0x3d, 0x3c, 0x72, 0xa1, 0xbd,
  0x25, 0x30, 0x45, 0x3e, 0x17, 0x96, 0xdf, 0xbf, 0xf0, 0x45, 0x12, 0xbd,
  0x53, 0x41, 0xdc, 0xbc, 0x79, 0x81, 0x97, 0x3e, 0x53, 0xf5, 0x82, 0x3c,
  0xbe, 0x64, 0xd2, 0x3d, 0x03, 0x9c, 0x0c, 0xbd, 0x83, 0x25, 0xc8, 0x3f,
  0x9c, 0x69, 0xad, 0xbf, 0xe8, 0xda, 0x9f, 0x3c, 0x86, 0xfe, 0x7f, 0xbd,
  0x37, 0x89, 0x12, 0x3e, 0xbd, 0x87, 0xde, 0xbf, 0x1a, 0x79, 0x48, 0xbe,
  0x10, 0x6a, 0x74, 0xbc, 0xbb, 0x87, 0x21, 0x3e, 0x86, 0x3f, 0x03, 0x3d,
  0x74, 0x2b, 0x31, 0x3e, 0x72, 0xac, 0x88, 0xbd, 0x4b, 0xe7, 0xce, 0x3f,
  0xb1, 0xae, 0xac, 0xbf, 0x5f, 0x5e, 0x4d, 0xbc, 0xf5, 0x0b, 0x41, 0x3b,
  0xad, 0xfe, 0xc9, 0x3e, 0x8a, 0xab, 0xd5, 0xbf, 0xb0, 0x9c, 0x8a, 0xba,
  0xe9, 0x88, 0x46, 0xbd, 0x60, 0xad, 0xb2, 0x3e, 0xf5, 0xaf, 0x20, 0x3d,
  0x78, 0x97, 0xf7, 0x3d, 0xac, 0x94, 0x6a, 0xbd, 0xc1, 0x74, 0xbd, 0x3f,
  0x98, 0xe9, 0xad, 0xbf, 0xa9, 0x60, 0x99, 0x3e, 0x1f, 0x26, 0xc0, 0xbc,
  0x62, 0x22, 0x9b, 0x3e, 0x5d, 0x4d, 0xe4, 0xbf, 0xa1, 0x42, 0x42, 0xbd,
  0x43, 0xfa, 0x98, 0x3c, 0x05, 0x47, 0xa0, 0x3e, 0x65, 0x15, 0xe6, 0x3c,
  0x77, 0x37, 0xd0, 0x3d, 0xb8, 0xea, 0x9c, 0xbc, 0x38, 0xdb, 0xd3, 0x3f,
  0x29, 0x1d, 0xac, 0xbf, 0xe1, 0xd1, 0xaa, 0x3e, 0x0e, 0x23, 0x5e, 0xbc,
  0x34, 0xf4, 0x81, 0x3e, 0x1f, 0x55, 0xde, 0xbf, 0x12, 0xf0, 0x05, 0xbd,
  0xcd, 0xd9, 0xa7, 0x3a, 0x58, 0x06, 0xb2, 0x3e, 0xcc, 0x56, 0x14, 0x3d,
  0xa6, 0x4f, 0x12, 0x3e, 0x2a, 0x11, 0x22, 0xbc, 0x72, 0x46, 0xb3, 0x3f,
  0xb9, 0x1f, 0xc5, 0xbf, 0x66, 0x1a, 0x03, 0xbd, 0xea, 0x78, 0x74, 0xbc,
  0x40, 0xf3, 0x85, 0xbf, 0xac, 0x05, 0x04, 0x3f, 0xf6, 0xab, 0xac, 0xbd,
  0x47, 0x8c, 0xdd, 0x3d, 0xe8, 0xec, 0x5e, 0xbe, 0xaf, 0x60, 0x08, 0x3d,
  0x5e, 0x99, 0x9e, 0xbd, 0x05, 0xd1, 0xd4, 0x3a, 0x96, 0xc4, 0xce, 0xbf,
  0x6b, 0x0b, 0x78, 0x3d, 0x47, 0x55, 0x2c, 0xbf, 0x43, 0xe0, 0x7f, 0xbc,
  0x0e, 0x86, 0x71, 0xbf, 0xb3, 0x25, 0xe8, 0x3e, 0x8f, 0x2b, 0x87, 0xbd,
  0x0c, 0x9b, 0x81, 0x3d, 0x32, 0x93, 0x27, 0xbe, 0xdf, 0x12, 0x45, 0x3d,
  0x4d, 0xa7, 0x9b, 0x3c, 0xb9, 0x8b, 0x85, 0xbc, 0x35, 0xd4, 0xe5, 0xbf,
  0x22, 0x6c, 0xe3, 0x3c, 0xe5, 0x72, 0x64, 0xbf, 0x3b, 0x73, 0x86, 0xbd,
  0xb5, 0xc7, 0x86, 0xbf, 0xfc, 0x35, 0xf5, 0x3e, 0xfb, 0x1b, 0x08, 0xbd,
  0xac, 0x4a, 0x8f, 0x3c, 0x6e, 0x2d, 0x98, 0xbe, 0x83, 0x01, 0x8d, 0x3d,
  0x9b, 0xa9, 0x5c, 0xbc, 0x60, 0x9f, 0xb0, 0xbc, 0x8f, 0x9f, 0xe4, 0xbf,
  0xd2, 0x07, 0x20, 0x3d, 0x06, 0xda, 0x3f, 0xbf, 0x30, 0x0c, 0x22, 0xbd,
  0x78, 0x2c, 0x86, 0xbf, 0xe2, 0x4c, 0xca, 0x3e, 0xc3, 0xf6, 0x31, 0x3d,
  0x97, 0x8e, 0x81, 0x3d, 0x3e, 0x9d, 0x4a, 0xbe, 0xce, 0x96, 0x73, 0x3d,
  0x89, 0xee, 0xda, 0xbc, 0xa1, 0xfb, 0xec, 0x3b, 0xc8, 0x58, 0xd4, 0xbf,
  0x60, 0x9c, 0xa8, 0x3c, 0xec, 0xea, 0x38, 0xbf, 0x64, 0x01, 0x5a, 0xbd,
  0x70, 0x67, 0x8a, 0xbf, 0xd0, 0x51, 0xd4, 0x3e, 0xc0, 0x8b, 0xc8, 0xbd,
  0x94, 0x9f, 0x66, 0x3d, 0xbb, 0x43, 0x8c, 0xbe, 0x72, 0x86, 0x14, 0x3d,
  0xe7, 0x73, 0x2f, 0xbc, 0xde, 0x85, 0xd1, 0x3c, 0x9d, 0x4d, 0xdf, 0xbf,
  0x2a, 0x25, 0xf7, 0xbd, 0x73, 0xe2, 0x46, 0xbf, 0x46, 0x09, 0x28, 0xbd,
  0x12, 0x79, 0x7a, 0xbf, 0x73, 0xcd, 0xc2, 0x3e, 0x58, 0x6f, 0x4b, 0xbd,
  0xe9, 0x6a, 0xb5, 0x3d, 0xec, 0xdf, 0x34, 0xbe, 0x57, 0x46, 0x15, 0x3d,
  0x0b, 0x91, 0x49, 0xbc, 0x06, 0xd7, 0x33, 0xbd, 0x2f, 0x40, 0xe9, 0xbf,
  0xe4, 0xb0, 0xa1, 0x3c, 0xb3, 0x07, 0x40, 0xbf, 0xdf, 0x4a, 0x05, 0xbd,
  0xd7, 0xc9, 0x3c, 0xbf, 0x5c, 0x91, 0xd8, 0x3e, 0x19, 0xc1, 0x00, 0x3e,
  0xbe, 0xaa, 0x1f, 0x3c, 0x3b, 0x3a, 0x96, 0xbe, 0x13, 0x66, 0x6f, 0x3d,
  0xdd, 0xfc, 0x6d, 0xbc, 0x44, 0x92, 0x71, 0xbd, 0xa8, 0x2a, 0xc2, 0xbf,
  0xc6, 0x51, 0x03, 0x3c, 0x5f, 0xef, 0x4b, 0xbf, 0x3c, 0x90, 0x42, 0xbd,
  0x12, 0xa4, 0x55, 0xbf, 0x29, 0x66, 0xf6, 0x3e, 0xa5, 0xe0, 0xfd, 0xbc,
  0x98, 0x76, 0xa8, 0x3d, 0xe4, 0xd9, 0x72, 0xbe, 0x48, 0x79, 0x46, 0x3d,
  0x08, 0x46, 0x99, 0xbb, 0x48, 0xfe, 0x56, 0xbd, 0x9a, 0x1b, 0xfb, 0xbf,
  0xa1, 0xb7, 0x9e, 0xbd, 0x93, 0xb9, 0x23, 0xbf, 0x56, 0x99, 0x0b, 0x3d,
  0x6d, 0x7b, 0xd2, 0x3e, 0xd6, 0x6c, 0x50, 0x3e, 0x6d, 0x96, 0x87, 0x3e,
  0x85, 0x19, 0xb2, 0xbf, 0x0f, 0xa6, 0x39, 0x3e, 0x27, 0x2e, 0x68, 0xbe,
  0x4d, 0x7d, 0x4e, 0x3e, 0x51, 0x33, 0x9c, 0x3d, 0x92, 0x46, 0x92, 0x3e,
  0x4b, 0x64, 0x83, 0x3d, 0x28, 0xaf, 0x07, 0xbe, 0x1e, 0x09, 0xcc, 0x3d,
  0xf1, 0x0f, 0x0d, 0x3f, 0x45, 0x16, 0x84, 0x3e, 0xae, 0x5c, 0xd6, 0x3e,
  0xef, 0xe3, 0x8c, 0xbf, 0x8e, 0xf6, 0x9b, 0x3e, 0x96, 0x93, 0x36, 0xbe,
  0xd4, 0x5f, 0x0b, 0x3e, 0x7a, 0x45, 0x11, 0x3d, 0x74, 0x89, 0xba, 0x3e,
  0xe5, 0x7e, 0x7f, 0xbd, 0x98, 0x25, 0x24, 0x3e, 0x11, 0x68, 0x9b, 0x3d,
  0xb1, 0xe5, 0xd2, 0x3e, 0x59, 0x66, 0x7d, 0x3e, 0xe6, 0x68, 0x5d, 0x3e,
  0xd3, 0xf3, 0x9a, 0xbf, 0xbb, 0x66, 0x94, 0x3e, 0x5f, 0x4c, 0x97, 0xbe,
  0x96, 0x9e, 0x4c, 0x3e, 0xf5, 0x50, 0xb4, 0x3d, 0xe2, 0x9d, 0x8c, 0x3e,
  0x18, 0x65, 0x0c, 0x3d, 0xa5, 0xd6, 0x2e, 0xbe, 0x34, 0xb8, 0x92, 0x3d,
  0xe0, 0x67, 0xce, 0x3e, 0xf3, 0x08, 0x66, 0x3e, 0xf5, 0x87, 0xb9, 0x3e,
  0x87, 0xd8, 0x9a, 0xbf, 0xcf, 0xe5, 0xa6, 0x3e, 0x45, 0xf2, 0xa7, 0xbe,
  0x78, 0xc5, 0x49, 0x3d, 0x2b, 0x9d, 0x2d, 0x3d, 0xe1, 0xf7, 0xae, 0x3e,
  0xf6, 0x36, 0xef, 0x3b, 0x97, 0xc4, 0xfa, 0xbd, 0x5e, 0xf7, 0x93, 0x3d,
  0xc1, 0x41, 0x35, 0x3e, 0x12, 0x04, 0x17, 0x3e, 0xbe, 0xd8, 0xd1, 0x3d,
  0x1f, 0x92, 0xa3, 0xbf, 0x89, 0x7b, 0xa9, 0x3e, 0xc4, 0xc6, 0x7c, 0xbe,
  0x44, 0x72, 0x44, 0x3e, 0x4a, 0x3b, 0x9a, 0x3d, 0xe1, 0x2e, 0xe0, 0x3e,
  0x3b, 0xfd, 0x2a, 0x3d, 0xdc, 0xa3, 0xd2, 0x3d, 0x5f, 0xac, 0xb8, 0x3b,
  0xc4, 0xf1, 0x78, 0x3e, 0x14, 0xd6, 0x73, 0x3e, 0xc4, 0x7a, 0x42, 0x3e,
  0xe0, 0x1e, 0xa4, 0xbf, 0x8f, 0x53, 0xa3, 0x3e, 0x14, 0x25, 0x88, 0xbe,
  0xde, 0xc6, 0x4c, 0x3e, 0x6d, 0x4a, 0x01, 0x3e, 0xf2, 0x2b, 0x3a, 0x3d,
  0x86, 0x66, 0x9d, 0x3c, 0x26, 0xb9, 0x36, 0x3e, 0xbf, 0x65, 0xab, 0x3c,
  0x1b, 0xc6, 0xd3, 0x3e, 0x44, 0x60, 0x1a, 0x3e, 0x93, 0xfc, 0x8f, 0x3e,
  0x51, 0x2d, 0x8b, 0xbf, 0xcb, 0x86, 0xb0, 0x3d, 0xb7, 0xee, 0xa4, 0xbe,
  0x2c, 0x80, 0xe8, 0x3d, 0xfa, 0x69, 0x2a, 0x3d, 0xb8, 0x18, 0xb3, 0x3e,
  0x1b, 0x88, 0x91, 0x3c, 0xee, 0x8b, 0x07, 0x3c, 0x05, 0xd1, 0x89, 0x3d,
  0x73, 0xbe, 0xd1, 0x3e, 0x2d, 0x0e, 0x86, 0x3e, 0xe6, 0xc3, 0xfa, 0x3d,
  0x39, 0xd1, 0xa5, 0xbf, 0xfc, 0xec, 0x8a, 0x3e, 0xf9, 0xa1, 0x9e, 0xbe,
  0x4b, 0x80, 0xd5, 0x3d, 0x8f, 0xa3, 0xa7, 0x3d, 0x1b, 0x88, 0x74, 0x3e,
  0xe3, 0x99, 0xe4, 0x3b, 0x85, 0x34, 0x01, 0x3e, 0xdc, 0x32, 0x06, 0xbe,
  0xd4, 0x5d, 0xa8, 0x3e, 0xc9, 0xb9, 0xd0, 0xbf, 0xd6, 0x44, 0x62, 0xbe,
  0x98, 0xb9, 0x98, 0xbd, 0x0f, 0x95, 0xbb, 0x3e, 0xe3, 0x34, 0xf5, 0x3c,
  0xe8, 0x95, 0xca, 0x3d, 0x9d, 0xed, 0xef, 0x3c, 0xfa, 0xac, 0x8e, 0x3f,
  0xa5, 0x01, 0x60, 0xbf, 0xa4, 0xc4, 0x90, 0x3d, 0xef, 0xfd, 0x52, 0xbd,
  0xbd, 0x8f, 0xab, 0x3e, 0xb9, 0x53, 0xe0, 0xbf, 0x1f, 0xec, 0x12, 0xbe,
  0x0c, 0x24, 0x60, 0xbd, 0xa4, 0x54, 0x8f, 0x3e, 0xdb, 0x45, 0xdf, 0x3c,
  0x06, 0x70, 0xef, 0x3d, 0xb7, 0x6f, 0x83, 0x3b, 0x67, 0x1d, 0xa4, 0x3f,
  0x15, 0xa9, 0x27, 0xbf, 0x62, 0xdc, 0x2a, 0xbe, 0xcf, 0x56, 0x28, 0xbb,
  0x01, 0xdc, 0x33, 0x3e, 0x98, 0x50, 0xd9, 0xbf, 0xd4, 0x1e, 0x0c, 0xbe,
  0xf8, 0xea, 0x3a, 0xbd, 0x7f, 0x51, 0xc0, 0x3e, 0xe5, 0x0e, 0x78, 0x3b,
  0x3c, 0x15, 0x23, 0x3e, 0x77, 0x8c, 0x1c, 0xbd, 0xe8, 0xb8, 0x8d, 0x3f,
  0x9b, 0xd5, 0x4e, 0xbf, 0xdd, 0x04, 0x6a, 0xbe, 0x97, 0x35, 0x61, 0xbd,
  0x3d, 0xef, 0x04, 0x3e, 0x9b, 0xc7, 0xcf, 0xbf, 0xf5, 0x67, 0x7e, 0xbe,
  0xd3, 0xfa, 0xc0, 0xbb, 0x29, 0xfe, 0x7c, 0x3e, 0xa5, 0x52, 0xf8, 0x3b,
  0x96, 0x86, 0x2f, 0x3e, 0x7c, 0x2d, 0x4a, 0xbc, 0x95, 0x7a, 0x9f, 0x3f,
  0x6e, 0x3b, 0x40, 0xbf, 0x57, 0x95, 0x7c, 0xbe, 0x62, 0x1b, 0x9f, 0xbd,
  0xa8, 0x69, 0x8a, 0x3e, 0x8e, 0x1e, 0xdc, 0xbf, 0x33, 0x2a, 0x55, 0xbe,
  0x12, 0xca, 0x3a, 0xbd, 0x32, 0x93, 0x9d, 0x3e, 0x71, 0x03, 0xa3, 0x3c,
  0x70, 0xe8, 0x0b, 0x3e, 0x8d, 0x12, 0x54, 0xbd, 0x49, 0x98, 0x8b, 0x3f,
  0x9f, 0x8f, 0x44, 0xbf, 0xc5, 0xeb, 0x43, 0xbe, 0xee, 0x3c, 0x00, 0xbd,
  0x63, 0xb3, 0x5b, 0x3e, 0xfe, 0x83, 0xe0, 0xbf, 0x6b, 0xcc, 0x19, 0xbe,
  0xdb, 0x5b, 0x5b, 0xbd, 0x67, 0xcd, 0x92, 0x3e, 0x2f, 0x9c, 0x9d, 0x3c,
  0x01, 0xf1, 0x2c, 0x3e, 0xc7, 0x4e, 0xd0, 0xbc, 0x32, 0x42, 0xa3, 0x3f,
  0x2b, 0xa4, 0x71, 0xbf, 0x93, 0xfb, 0x68, 0x3d, 0x41, 0x27, 0x34, 0xbd,
  0x35, 0x4a, 0x59, 0x3e, 0x0c, 0x04, 0xeb, 0xbf, 0x90, 0x6b, 0x3d, 0xbe,
  0x7f, 0x3d, 0xbb, 0x3c, 0x4e, 0x6b, 0x9c, 0x3e, 0xc8, 0x15, 0xf2, 0x3a,
  0x0e, 0x89, 0xfd, 0x3d, 0xb8, 0x41, 0xdc, 0x3c, 0x89, 0xf0, 0x8f, 0x3f,
  0x2a, 0x08, 0x4b, 0xbf, 0xb6, 0xa1, 0x8f, 0x3c, 0x0d, 0xc9, 0x93, 0xbc,
  0x9b, 0xcc, 0x8a, 0x3e, 0x3c, 0x61, 0xeb, 0xbf, 0xaf, 0x1e, 0x74, 0xbe,
  0x3e, 0x5e, 0x09, 0xbd, 0x04, 0xfc, 0xc3, 0x3e, 0x6d, 0x9d, 0x1d, 0x3d,
  0xf1, 0x75, 0x0f, 0x3e, 0x99, 0x28, 0xad, 0xbc, 0x80, 0xf5, 0xb8, 0x3f,
  0xdb, 0x3a, 0x52, 0xbf, 0x7d, 0xe9, 0x92, 0xbe, 0x66, 0xbc, 0x0d, 0x3e,
  0x7e, 0x47, 0x3a, 0xbf, 0x16, 0xc5, 0x1a, 0x3e, 0x49, 0x9f, 0x19, 0xbf,
  0x64, 0x5b, 0xb5, 0x3d, 0xab, 0x68, 0xc3, 0x3e, 0xae, 0x6a, 0x2c, 0xbf,
  0x09, 0xd4, 0xf6, 0x3d, 0xd4, 0x15, 0x8e, 0xbc, 0xde, 0xee, 0x85, 0xbd,
  0x10, 0x69, 0x1d, 0x3e, 0xef, 0xdc, 0xbd, 0x3e, 0xda, 0xd0, 0xa1, 0x3d,
  0xe4, 0xfd, 0x27, 0xbf, 0x5f, 0x7b, 0x82, 0x3e, 0x66, 0x59, 0x23, 0xbf,
  0x2b, 0x4d, 0x91, 0x3d, 0xae, 0xde, 0xb9, 0x3e, 0xf5, 0x6d, 0x32, 0xbf,
  0x34, 0x49, 0x75, 0x3d, 0xc6, 0xec, 0xef, 0x3b, 0x78, 0x00, 0x3e, 0x3e,
  0x2a, 0xbe, 0x2f, 0x3e, 0x5f, 0xb5, 0x68, 0x3e, 0x2d, 0x93, 0xf5, 0x3d,
  0x05, 0xeb, 0x48, 0xbf, 0x41, 0xff, 0x6f, 0x3e, 0x65, 0x10, 0x03, 0xbf,
  0xf9, 0x86, 0x87, 0x3d, 0xcf, 0xd5, 0x89, 0x3e, 0x33, 0xbf, 0x33, 0xbf,
  0x23, 0x5c, 0x18, 0x3e, 0x34, 0x8b, 0xa2, 0x3c, 0xf2, 0x8e, 0xff, 0x3d,
  0x88, 0x66, 0x8d, 0x3d, 0x97, 0x64, 0x5e, 0x3e, 0x8e, 0xbf, 0x74, 0x3d,
  0x0b, 0x53, 0x1f, 0xbf, 0xd6, 0xe0, 0x29, 0x3e, 0x5d, 0xa5, 0x1c, 0xbf,
  0xaa, 0x42, 0x5a, 0x3d, 0x66, 0xf7, 0xee, 0x3e, 0x42, 0xa7, 0x1c, 0xbf,
  0x2e, 0x02, 0xcf, 0x3d, 0xe5, 0x74, 0x23, 0x3c, 0xe9, 0xc8, 0x31, 0xbe,
  0xdf, 0x87, 0x9d, 0x3d, 0xff, 0x09, 0x92, 0x3e, 0xcd, 0x5a, 0x09, 0x3e,
  0x45, 0x06, 0x26, 0xbf, 0xac, 0x44, 0xaf, 0x3e, 0x46, 0x02, 0x26, 0xbf,
  0x97, 0xd1, 0xa0, 0x3d, 0x65, 0x3d, 0x0a, 0x3f, 0xf8, 0xf6, 0x17, 0xbf,
  0x5f, 0x47, 0x78, 0x3e, 0x04, 0x75, 0x77, 0x3d, 0xc7, 0x93, 0x38, 0x3e,
  0xdb, 0x08, 0x6a, 0x3e, 0x63, 0xae, 0x50, 0x3e, 0xdb, 0x93, 0xdb, 0x3d,
  0x66, 0xd7, 0x1a, 0xbf, 0x85, 0xd9, 0x85, 0x3e, 0xfd, 0x79, 0x30, 0xbf,
  0xc1, 0x31, 0xb7, 0x3d, 0x97, 0x4b, 0x73, 0x3e, 0x36, 0x8f, 0x1b, 0xbf,
  0x8d, 0xb8, 0xda, 0x3d, 0xd2, 0xfe, 0xc7, 0x3c, 0x69, 0xb2, 0x04, 0xbc,
  0x53, 0x59, 0x29, 0x3e, 0x0b, 0xb4, 0x11, 0x3e, 0x46, 0x32, 0xb6, 0x3d,
  0x96, 0xac, 0x55, 0xbf, 0xcf, 0xfe, 0x9a, 0x3e, 0xb7, 0xfe, 0x23, 0xbf,
  0x8c, 0x1d, 0xc4, 0x3d, 0x27, 0xcd, 0xf5, 0x3d, 0xc7, 0x48, 0x28, 0xbf,
  0x8a, 0xfa, 0xbb, 0x3d, 0x85, 0x73, 0xd1, 0xbc, 0xb3, 0xa7, 0xf3, 0x3c,
  0x69, 0x77, 0x62, 0x3e, 0xf5, 0x28, 0x1b, 0x3e, 0xdc, 0xc3, 0xf5, 0x3d,
  0xb9, 0x1e, 0x30, 0xbf, 0x5e, 0xcd, 0x88, 0x3e, 0xbc, 0xfb, 0x33, 0xbf,
  0xe2, 0xe9, 0xeb, 0x3d, 0xb0, 0x8a, 0x97, 0x3e, 0x9c, 0xd0, 0x2c, 0xbf,
  0xa4, 0xf3, 0xba, 0x3d, 0x11, 0x6f, 0x98, 0x3d, 0x5a, 0x82, 0x34, 0xbd,
  0x60, 0x9d, 0x9d, 0x3d, 0x06, 0x4f, 0xed, 0x3d, 0xc5, 0xf5, 0x43, 0x3f,
  0xc7, 0x83, 0x97, 0xbd, 0x99, 0xeb, 0xb2, 0x3b, 0x5f, 0x14, 0xe9, 0xbb,
  0xb4, 0x19, 0x30, 0x3f, 0xef, 0x1f, 0x7e, 0xbd, 0xf0, 0xd9, 0x96, 0x3d,
  0xef, 0x0f, 0x14, 0x3d, 0x05, 0x23, 0x08, 0x3f, 0x28, 0xce, 0x51, 0xbd,
  0x54, 0x4b, 0x35, 0x3e, 0x55, 0xa2, 0xee, 0x3c, 0x97, 0xb3, 0x23, 0x3f,
  0xea, 0xf9, 0x15, 0xbd, 0x2e, 0x71, 0x64, 0x3d, 0xac, 0xfb, 0x97, 0xbd,
  0x67, 0x8a, 0x16, 0x3f, 0x46, 0xa1, 0x6f, 0xbd, 0x34, 0xc9, 0x14, 0x3e,
  0x8d, 0x5b, 0xa9, 0xbd, 0xeb, 0x0a, 0x02, 0x3f, 0xd1, 0xe0, 0x11, 0xbd,
  0x06, 0xee, 0x67, 0xbb, 0x25, 0x2b, 0xbd, 0xbc, 0x42, 0x48, 0x26, 0x3f,
  0xc7, 0x90, 0x58, 0xbd, 0xae, 0x2b, 0x40, 0xbd, 0x94, 0x3a, 0x84, 0xbd,
  0xe7, 0x2e, 0x0b, 0x3f, 0x61, 0x0d, 0xc7, 0xbd, 0xe9, 0xf1, 0xae, 0xbc,
  0x4d, 0x0e, 0x12, 0x3d, 0x6d, 0xb7, 0xdd, 0x3e, 0xbc, 0xbb, 0xe2, 0xbc,
  0xb4, 0x75, 0x27, 0xbd, 0x63, 0xdb, 0xc3, 0xbd, 0x07, 0x21, 0x19, 0x3f,
  0x78, 0xc2, 0x9a, 0xbd, 0xdd, 0xc0, 0xe3, 0xbd, 0xaa, 0x47, 0xb8, 0xbd,
  0xd6, 0xf1, 0x09, 0x3f, 0xdb, 0x23, 0x9b, 0xbd, 0xe9, 0x60, 0xae, 0xbd,
  0xd2, 0xe6, 0xc4, 0x3b, 0xba, 0x29, 0x0e, 0x3f, 0x69, 0x9f, 0x50, 0xbe,
  0xd0, 0xcc, 0x2d, 0x3d, 0x94, 0x90, 0xa8, 0xbb, 0x85, 0x80, 0x02, 0x3f,
  0x6d, 0x07, 0x04, 0xbe, 0x9d, 0x11, 0xc2, 0xbd, 0xba, 0xb0, 0x72, 0xbd,
  0x34, 0x32, 0x51, 0x3f, 0x51, 0xae, 0xd4, 0xbd, 0xe4, 0x75, 0x83, 0x3e,
  0x54, 0xf4, 0x18, 0xbd, 0xf1, 0x15, 0x0e, 0x3f, 0xf3, 0xb2, 0xe0, 0x3d,
  0x59, 0xfb, 0xe9, 0x3c, 0x87, 0x3a, 0x39, 0xbc, 0x00, 0x96, 0x31, 0x3f,
  0xfe, 0x77, 0xe7, 0xbd, 0xd4, 0x9b, 0xc4, 0xbd, 0x42, 0x38, 0x07, 0xbe,
  0xf7, 0x7a, 0x06, 0x3f, 0x95, 0x61, 0x1a, 0xbe, 0x58, 0x86, 0xfb, 0xbd,
  0x2c, 0xe5, 0xa0, 0x3d, 0xf5, 0x84, 0xdd, 0x3e, 0xb9, 0x0d, 0xe7, 0x3d,
  0x60, 0xff, 0x49, 0x3d, 0xe3, 0xe9, 0x70, 0xbd, 0x55, 0x96, 0x22, 0x3f,
  0xf5, 0x77, 0x10, 0xbe, 0x50, 0x27, 0x42, 0xbd, 0x15, 0x19, 0x15, 0xbe,
  0x51, 0x7e, 0x10, 0x3f, 0xc1, 0xe8, 0x16, 0x3c, 0x35, 0x1a, 0x59, 0x3d,
  0x9a, 0xdc, 0x5f, 0x3d, 0x8b, 0x31, 0xd6, 0x3e, 0x3d, 0xf7, 0xcf, 0x3d,
  0xa4, 0xe4, 0xc5, 0x3d, 0x07, 0xac, 0x48, 0x3d, 0x31, 0x8d, 0x34, 0x3f,
  0x1e, 0x37, 0x43, 0xbe, 0x45, 0xda, 0x2e, 0x3b, 0x02, 0x8f, 0xa8, 0xbd,
  0x14, 0x6a, 0x38, 0x3f, 0x6a, 0x12, 0x13, 0xbd, 0xa2, 0x05, 0x91, 0xbd,
  0xd6, 0x77, 0x9c, 0xbc, 0x53, 0x66, 0xf2, 0x3e, 0x69, 0xd2, 0xec, 0x3d,
  0x68, 0x09, 0x4b, 0xbc, 0xf9, 0x4a, 0xb9, 0x3c, 0x01, 0x60, 0x89, 0x3d,
  0x22, 0xc9, 0x5e, 0x3e, 0x8d, 0xd5, 0x7a, 0xbd, 0xdb, 0x48, 0xbb, 0x3c,
  0x8f, 0x95, 0x87, 0x3d, 0xc7, 0x0f, 0x49, 0xbe, 0x9f, 0x79, 0xa2, 0xbd,
  0xb3, 0x22, 0x36, 0xbf, 0xd3, 0x8c, 0x81, 0x3d, 0x2b, 0x53, 0x28, 0xbf,
  0x84, 0x18, 0xb1, 0xbe, 0x5f, 0x7a, 0x3d, 0xbf, 0x09, 0x73, 0xe4, 0x3c,
  0xba, 0xc1, 0x21, 0x3e, 0x57, 0x68, 0xa8, 0xbd, 0x95, 0x3a, 0x7b, 0x3d,
  0xae, 0x5d, 0xa2, 0x3d, 0x5d, 0x86, 0xbc, 0xbe, 0x35, 0xdb, 0xc7, 0xbd,
  0xa0, 0x9a, 0x31, 0xbf, 0xac, 0x16, 0x9b, 0x3d, 0x95, 0xd9, 0x0f, 0xbf,
  0x7c, 0x9e, 0xe8, 0xbe, 0xbb, 0x31, 0x74, 0xbf, 0xd6, 0xf6, 0xf5, 0x3d,
  0x43, 0xe7, 0x37, 0x3e, 0x0b, 0x00, 0xb9, 0xbd, 0xc8, 0xbd, 0x13, 0xbe,
  0xef, 0xd5, 0xca, 0x3d, 0x36, 0xce, 0xb9, 0xbe, 0xb7, 0x8a, 0x18, 0xbd,
  0xfe, 0x5b, 0x5e, 0xbf, 0xfd, 0x0d, 0xdf, 0x3c, 0x93, 0x12, 0x1b, 0xbf,
  0x09, 0xf9, 0xbd, 0xbe, 0x9a, 0xfd, 0x7a, 0xbf, 0xc3, 0xcb, 0x4e, 0x3d,
  0xea, 0x83, 0x0c, 0x3e, 0xb9, 0x8a, 0x97, 0x3d, 0x58, 0x0e, 0x55, 0x3d,
  0xe4, 0x5a, 0xf4, 0x3d, 0x86, 0x5e, 0xd4, 0xbe, 0x2a, 0x71, 0xea, 0xbd,
  0xce, 0x87, 0x56, 0xbf, 0x47, 0x49, 0x6d, 0x3d, 0x64, 0xc2, 0x72, 0xbe,
  0x00, 0xb9, 0xfa, 0xbe, 0xe6, 0xc3, 0x58, 0xbf, 0x11, 0xbf, 0x30, 0xbb,
  0xed, 0x34, 0x5f, 0x3d, 0xd1, 0xff, 0x9e, 0xbc, 0x07, 0xa0, 0x82, 0xbc,
  0x37, 0x0a, 0x5d, 0x3d, 0xb9, 0xdb, 0xca, 0xbe, 0xeb, 0x31, 0x29, 0xbd,
  0xe9, 0xf7, 0x54, 0xbf, 0x5c, 0x11, 0x2c, 0x3d, 0x4b, 0xa4, 0xcd, 0x3b,
  0xbb, 0xfc, 0xdd, 0xbe, 0x42, 0x17, 0x40, 0xbf, 0x2b, 0x13, 0xa1, 0x3b,
  0xa8, 0x0c, 0x92, 0x3d, 0xfc, 0x4a, 0x0c, 0x3d, 0x4c, 0x3a, 0x11, 0xbb,
  0x62, 0x8d, 0x2c, 0x3d, 0x98, 0x1d, 0x01, 0xbf, 0xf8, 0x6a, 0x02, 0xbd,
  0xa8, 0x07, 0x45, 0xbf, 0x09, 0x9c, 0x65, 0x3d, 0x18, 0x13, 0xfe, 0xbd,
  0x5f, 0xc2, 0xca, 0xbe, 0xfb, 0xed, 0x53, 0xbf, 0x3a, 0x58, 0x53, 0x3a,
  0x69, 0x26, 0xdd, 0x3d, 0xd7, 0x25, 0x0b, 0xbe, 0xa2, 0x56, 0x05, 0x3e,
  0x2e, 0x83, 0xcc, 0x3d, 0xe1, 0x09, 0xdf, 0xbe, 0x5e, 0xa5, 0x90, 0xbd,
  0x7f, 0x1f, 0x30, 0xbf, 0xa6, 0xb2, 0x36, 0x3d, 0x9a, 0x7d, 0xbc, 0xbe,
  0x43, 0x6f, 0x10, 0xbf, 0x1f, 0xb9, 0x2c, 0xbf, 0xd5, 0xd9, 0x8e, 0xbb,
  0x02, 0x8b, 0xb3, 0x3d, 0x85, 0x52, 0x67, 0x3d, 0x64, 0x0e, 0x7a, 0xbd,
  0x1a, 0x30, 0x02, 0x3d, 0x2d, 0xad, 0xdc, 0xbe, 0xf1, 0xe0, 0x96, 0xbd,
  0x0a, 0x89, 0x3c, 0xbf, 0xff, 0xd2, 0x07, 0x3d, 0x1c, 0x92, 0x0e, 0xbf,
  0x9f, 0xb8, 0xf2, 0xbe, 0x7a, 0x99, 0x6b, 0xbf, 0xe7, 0x76, 0x8f, 0x3c,
  0x1a, 0x32, 0xa3, 0x3e, 0xc8, 0x41, 0x52, 0x3e, 0xcc, 0x8d, 0x4d, 0x3e,
  0x40, 0xb2, 0xc6, 0xbf, 0xcd, 0x4a, 0x06, 0x3f, 0x92, 0x9c, 0x02, 0xbe,
  0xeb, 0x85, 0xe7, 0x3d, 0xbc, 0x2b, 0x77, 0x3d, 0xeb, 0x83, 0xbc, 0x3e,
  0xad, 0x97, 0x0d, 0xbd, 0x3d, 0x11, 0xe8, 0x3d, 0x26, 0x43, 0xda, 0x3d,
  0x66, 0x59, 0xac, 0x3e, 0x9d, 0x7b, 0x7b, 0x3e, 0xf1, 0xb4, 0x95, 0x3e,
  0x17, 0xf2, 0xbc, 0xbf, 0xf2, 0x4a, 0x2e, 0x3e, 0x0c, 0xbd, 0x09, 0xbe,
  0xb5, 0x27, 0x99, 0x3e, 0xd7, 0x1f, 0xca, 0x3c, 0xc7, 0x45, 0x60, 0x3e,
  0xa2, 0x67, 0xac, 0xbd, 0x2d, 0xc8, 0xaf, 0xbc, 0x1b, 0xaf, 0x76, 0xbb,
  0xfa, 0x5a, 0x97, 0x3e, 0xbb, 0x70, 0x10, 0x3e, 0x0e, 0xb9, 0x83, 0x3e,
  0x05, 0xa7, 0xa3, 0xbf, 0x5b, 0x36, 0xac, 0x3e, 0x8e, 0x23, 0x53, 0xbe,
  0xcb, 0xf3, 0x94, 0x3d, 0x28, 0x33, 0xc7, 0x3d, 0xe5, 0x6b, 0x05, 0x3e,
  0xc9, 0x36, 0xb8, 0x3d, 0x11, 0xa0, 0xd1, 0xbd, 0x5e, 0xe8, 0x99, 0x3d,
  0xb5, 0xc5, 0xca, 0x3e, 0x4e, 0x54, 0x68, 0x3e, 0x89, 0x4f, 0x0b, 0x3e,
  0x19, 0x00, 0xaf, 0xbf, 0x4c, 0x76, 0x89, 0x3e, 0xf7, 0x3a, 0x82, 0xbe,
  0xab, 0x4a, 0x44, 0x3e, 0xd6, 0xa1, 0x70, 0xbc, 0x56, 0x0c, 0xad, 0x3c,
  0x9c, 0x7d, 0xb6, 0x3d, 0xe3, 0x7a, 0xe3, 0xbd, 0x92, 0x52, 0xa7, 0x3b,
  0x3f, 0xb3, 0xb5, 0x3e, 0xb7, 0xca, 0x3c, 0x3e, 0x68, 0x0f, 0x9a, 0x3d,
  0xf4, 0x35, 0x9e, 0xbf, 0x1e, 0xd2, 0x91, 0x3e, 0xb4, 0x6a, 0x3e, 0xbe,
  0x13, 0x59, 0x28, 0x3e, 0xac, 0xb4, 0xd4, 0x3d, 0xfa, 0x88, 0x3c, 0x3e,
  0x45, 0x63, 0x09, 0xbd, 0x94, 0x1d, 0x49, 0xbd, 0xcc, 0x1a, 0xb7, 0x3c,
  0x80, 0xd4, 0x32, 0x3e, 0x25, 0x99, 0x85, 0x3d, 0x0d, 0xd3, 0x26, 0x3e,
  0x4d, 0x8d, 0xb3, 0xbf, 0xcc, 0x70, 0xc1, 0x3e, 0x63, 0xee, 0xd9, 0xbd,
  0x70, 0x21, 0x94, 0x3d, 0xa5, 0x90, 0x6f, 0x3d, 0x3a, 0x46, 0x78, 0x3d,
  0x40, 0x22, 0x09, 0x3b, 0xb4, 0xf2, 0x48, 0x3e, 0xbd, 0x3c, 0x1a, 0xbc,
  0x4c, 0x93, 0xc1, 0x3e, 0x2e, 0xdd, 0x51, 0x3e, 0x20, 0x85, 0xb3, 0x3e,
  0x33, 0x6f, 0x80, 0xbf, 0x0e, 0x00, 0x89, 0x3e, 0x4e, 0xd0, 0x29, 0xbe,
  0x1d, 0xa3, 0x35, 0x3e, 0xc1, 0x6b, 0x0d, 0x3d, 0xc2, 0xd5, 0x80, 0x3e,
  0x63, 0x5c, 0x19, 0x3c, 0xf9, 0x4a, 0xad, 0xbd, 0xdc, 0x5d, 0xa8, 0x3d,
  0x5e, 0xfb, 0x91, 0x3e, 0x49, 0x21, 0xfc, 0x3d, 0x5d, 0xd7, 0x6b, 0x3e,
  0x78, 0xe0, 0xad, 0xbf, 0x34, 0x7f, 0x80, 0x3e, 0x4a, 0x84, 0x94, 0xbe,
  0x4f, 0x61, 0xed, 0x3e, 0xd7, 0xd0, 0x05, 0x3e, 0xcc, 0x99, 0x0b, 0x3e,
  0x24, 0x30, 0x6a, 0xbd, 0x99, 0x4f, 0x1d, 0xbe, 0xd7, 0x31, 0xc5, 0xbe,
  0x1d, 0xdb, 0x24, 0xbd, 0x6d, 0x2c, 0x6d, 0x3e, 0x66, 0x38, 0xd4, 0x3d,
  0x95, 0xec, 0x13, 0x3b, 0x37, 0x73, 0xef, 0xbc, 0xbd, 0x55, 0x1c, 0x3d,
  0xfd, 0xc6, 0x20, 0x3e, 0x01, 0xa0, 0x4e, 0x3d, 0xbb, 0x73, 0xab, 0xbf,
  0xcc, 0xeb, 0x2c, 0x3e, 0x99, 0x82, 0xc3, 0xbe, 0x35, 0xee, 0xa3, 0xbe,
  0x77, 0x05, 0x48, 0x3c, 0x6b, 0x96, 0x4f, 0x3e, 0x61, 0x51, 0x33, 0x3e,
  0xf0, 0x85, 0x1b, 0xbe, 0xdf, 0x99, 0x91, 0xbd, 0x29, 0x23, 0x45, 0x3c,
  0x13, 0x0a, 0xb9, 0x3d, 0x9e, 0x18, 0xee, 0x3b, 0x22, 0xe6, 0xa0, 0xbf,
  0x50, 0x27, 0x54, 0x3e, 0xeb, 0x87, 0x98, 0xbe, 0x06, 0x33, 0x63, 0xbe,
  0xe4, 0x13, 0xfa, 0xbd, 0xec, 0xa6, 0x8f, 0x3e, 0xcc, 0x6f, 0x3f, 0x3e,
  0x12, 0x9c, 0x86, 0xbd, 0x11, 0xa8, 0x4c, 0x3d, 0xb7, 0x0d, 0xb0, 0x3c,
  0x56, 0x13, 0x43, 0x3e, 0x56, 0x60, 0xf7, 0x3d, 0xc0, 0xb0, 0xa3, 0xbf,
  0xd1, 0xee, 0x3d, 0x3e, 0x7e, 0x01, 0xcc, 0xbe, 0x49, 0xab, 0x88, 0xbe,
  0x97, 0xe1, 0x82, 0xbd, 0xd4, 0xfd, 0xb7, 0x3e, 0xc1, 0x2c, 0x27, 0x3e,
  0x4a, 0x02, 0xca, 0xbd, 0x49, 0xd2, 0xef, 0x3c, 0xd1, 0xc7, 0x0c, 0x3d,
  0x9a, 0x93, 0x1f, 0x3e, 0x4f, 0x68, 0xb6, 0x3c, 0xf6, 0xea, 0xb2, 0xbf,
  0xc5, 0x9e, 0x76, 0x3e, 0xbe, 0xaa, 0xcd, 0xbe, 0x46, 0xcb, 0xa2, 0xbe,
  0x4c, 0xfe, 0x95, 0xbd, 0x15, 0x1a, 0xa5, 0x3e, 0xbd, 0x01, 0x9e, 0x3e,
  0x0b, 0x6e, 0x78, 0xbd, 0x80, 0x63, 0x15, 0x3d, 0xa3, 0xf4, 0x27, 0x3d,
  0x25, 0xa2, 0x34, 0x3e, 0x93, 0x31, 0x76, 0xbd, 0x09, 0x88, 0xa8, 0xbf,
  0x97, 0xb9, 0x12, 0x3e, 0x01, 0x56, 0x9f, 0xbe, 0x4d, 0x32, 0x77, 0xbe,
  0x7c, 0xa5, 0x36, 0x3d, 0x87, 0x08, 0x8b, 0x3e, 0x7c, 0x2e, 0x37, 0x3e,
  0x34, 0xb0, 0x46, 0xbd, 0xfa, 0x06, 0xa5, 0x3c, 0xf6, 0x33, 0x7d, 0x3d,
  0xf3, 0xcb, 0x0a, 0x3e, 0x86, 0xea, 0x04, 0x3d, 0x05, 0x24, 0xad, 0xbf,
  0xfa, 0x80, 0x42, 0x3e, 0x4b, 0x3f, 0xa6, 0xbe, 0x67, 0x91, 0x84, 0xbe,
  0x58, 0x3a, 0xd6, 0xbd, 0x94, 0x1e, 0xf0, 0x3e, 0xdf, 0x33, 0x1a, 0x3e,
  0x02, 0xc7, 0x5a, 0xbd, 0xfa, 0x2e, 0x49, 0x3d, 0x4c, 0x09, 0x5f, 0x3d,
  0x30, 0x02, 0xbc, 0x3d, 0xa0, 0xef, 0x09, 0x3b, 0x63, 0x46, 0x8d, 0xbf,
  0xe3, 0x19, 0xc7, 0x3d, 0xf5, 0x25, 0x61, 0xbe, 0xe2, 0x60, 0xa4, 0xbe,
  0xb3, 0xcf, 0xd0, 0x3c, 0x68, 0xdd, 0x12, 0x3e, 0x50, 0x1b, 0xa3, 0x3d,
  0x86, 0x26, 0x21, 0xbe, 0x89, 0xe4, 0x9c, 0x3b, 0x29, 0xf5, 0xb8, 0x3d,
  0xc4, 0xc8, 0x30, 0x3e, 0x35, 0xf7, 0x73, 0x3c, 0xea, 0xde, 0xab, 0xbf,
  0x61, 0xd9, 0x49, 0x3e, 0x28, 0x80, 0xc1, 0xbe, 0xcd, 0x9c, 0x9f, 0x3d,
  0xf3, 0xaa, 0xa6, 0x3d, 0xb3, 0x6d, 0xbd, 0xbd, 0xc7, 0xcf, 0x4b, 0xbe,
  0xfd, 0x85, 0x69, 0x3d, 0x1d, 0x71, 0xde, 0xbe, 0xf5, 0x20, 0x7c, 0x3c,
  0xcb, 0x01, 0x44, 0xbf, 0x29, 0x6d, 0x72, 0x3c, 0x79, 0x32, 0x21, 0xbf,
  0xdd, 0x80, 0xe2, 0xbe, 0xd1, 0x30, 0x62, 0xbf, 0x24, 0x92, 0x8b, 0x3c,
  0x4b, 0xcc, 0xcc, 0x3d, 0xeb, 0x57, 0xa3, 0x3d, 0x80, 0x44, 0x77, 0x3d,
  0xbf, 0xc9, 0xbd, 0x3d, 0x61, 0x31, 0x0d, 0xbf, 0xb0, 0x75, 0xcc, 0xbc,
  0x3a, 0xb9, 0x36, 0xbf, 0x61, 0x9d, 0x13, 0x3d, 0xde, 0xfe, 0x4d, 0xbf,
  0x2a, 0xb9, 0x0f, 0xbf, 0xed, 0xfd, 0x65, 0xbf, 0xbc, 0xdd, 0x40, 0x3d,
  0x8a, 0x79, 0x96, 0x3d, 0xfc, 0x18, 0x1c, 0xbd, 0x81, 0x72, 0xb8, 0xbd,
  0xf3, 0x23, 0xff, 0x3d, 0xdc, 0xc2, 0xe6, 0xbe, 0xf3, 0x5d, 0x06, 0xbc,
  0x79, 0xf9, 0x2c, 0xbf, 0xef, 0x1a, 0x11, 0x3d, 0xf3, 0xc0, 0xff, 0xbe,
  0xf3, 0x7c, 0xd1, 0xbe, 0xba, 0xd0, 0x60, 0xbf, 0xce, 0xa8, 0x8f, 0x3c,
  0x13, 0x79, 0xe0, 0x3c, 0x29, 0x75, 0x3b, 0x3e, 0x6c, 0x52, 0x08, 0xbe,
  0x3d, 0x20, 0xf5, 0x3d, 0x95, 0x35, 0xce, 0xbe, 0xce, 0x42, 0x40, 0xbc,
  0x64, 0xb6, 0x13, 0xbf, 0x92, 0x67, 0x5d, 0x3d, 0x3a, 0xc3, 0x09, 0xbf,
  0x52, 0xc9, 0xf8, 0xbe, 0xe8, 0xa2, 0x37, 0xbf, 0x92, 0x2c, 0x8a, 0xbc,
  0x85, 0x30, 0x29, 0x3d, 0xb4, 0x59, 0xcb, 0x3d, 0xc8, 0x48, 0x18, 0xbc,
  0xca, 0xb8, 0xe8, 0x3d, 0x59, 0xc1, 0x3b, 0xbe, 0xb8, 0x31, 0x37, 0xbd,
  0xb2, 0x43, 0x20, 0xbf, 0x99, 0x79, 0x0b, 0x3c, 0x9a, 0x1e, 0x23, 0xbf,
  0x79, 0x6d, 0xd3, 0xbe, 0xe1, 0x9b, 0x52, 0xbf, 0xcb, 0x07, 0x0c, 0x3d,
  0xc0, 0xbd, 0x98, 0xb9, 0x2f, 0x5c, 0x6b, 0xbd, 0x37, 0xa7, 0x6f, 0xbe,
  0x27, 0x67, 0x89, 0x3d, 0x7a, 0xb3, 0xee, 0xbe, 0x4c, 0x03, 0x3a, 0xbd,
  0x88, 0x2c, 0x32, 0xbf, 0x8f, 0x10, 0x4a, 0x3a, 0x89, 0x92, 0xe9, 0xbe,
  0xfd, 0xdf, 0xc4, 0xbe, 0xff, 0xb2, 0x53, 0xbf, 0xa1, 0x04, 0x1a, 0x3c,
  0xef, 0xe4, 0x98, 0x3d, 0xbb, 0x12, 0x13, 0x3c, 0x24, 0x73, 0x7e, 0xbe,
  0xd5, 0x07, 0xec, 0x3d, 0xa2, 0xff, 0xd0, 0xbe, 0xcf, 0xd7, 0x99, 0xbc,
  0x16, 0x21, 0x43, 0xbf, 0xa3, 0x45, 0x04, 0x3c, 0x1f, 0xec, 0xe3, 0xbe,
  0x1d, 0x66, 0xe0, 0xbe, 0x54, 0xff, 0x29, 0xbf, 0xa3, 0x77, 0xeb, 0x3b,
  0x7b, 0xa4, 0x67, 0x3d, 0xf5, 0x35, 0x78, 0xbd, 0x2f, 0x47, 0x0f, 0xbe,
  0xb3, 0xff, 0xa1, 0x3d, 0x23, 0x67, 0x37, 0xbe, 0x23, 0x97, 0x01, 0xbd,
  0x8b, 0xb4, 0x1d, 0xbf, 0xea, 0x5e, 0x02, 0x3d, 0x99, 0xc0, 0x55, 0xbf,
  0x22, 0x2a, 0x0c, 0xbf, 0xb4, 0xff, 0x08, 0xbf, 0x46, 0xfd, 0xff, 0xff,
  0x10, 0x00, 0x00, 0x00, 0x07, 0x00, 0x00, 0x00, 0x14, 0x00, 0x00, 0x00,
  0x38, 0x00, 0x00, 0x00, 0x02, 0x00, 0x00, 0x00, 0x19, 0x00, 0x00, 0x00,
  0x60, 0x00, 0x00, 0x00, 0x20, 0x00, 0x00, 0x00, 0x63, 0x6e, 0x6e, 0x2d,
  0x61, 0x63, 0x74, 0x69, 0x76, 0x69, 0x74, 0x79, 0x2d, 0x6d, 0x6f, 0x64,
  0x65, 0x6c, 0x2f, 0x44, 0x65, 0x6e, 0x73, 0x65, 0x31, 0x2f, 0x4d, 0x61,
  0x74, 0x4d, 0x75, 0x6c, 0x00, 0x00, 0x00, 0x00, 0xb4, 0xfc, 0xff, 0xff,
  0xc6, 0xfd, 0xff, 0xff, 0x04, 0x00, 0x00, 0x00, 0x08, 0x00, 0x00, 0x00,
  0xff, 0xff, 0xff, 0xff, 0x60, 0x00, 0x00, 0x00, 0x00, 0x00, 0x0e, 0x00,
  0x18, 0x00, 0x08, 0x00, 0x07, 0x00, 0x0c, 0x00, 0x10, 0x00, 0x14, 0x00,
  0x0e, 0x00, 0x00, 0x00, 0x00, 0x00, 0x00, 0x02, 0x10, 0x00, 0x00, 0x00,
  0x06, 0x00, 0x00, 0x00, 0x10, 0x00, 0x00, 0x00, 0x34, 0x00, 0x00, 0x00,
  0x01, 0x00, 0x00, 0x00, 0x02, 0x00, 0x00, 0x00, 0x20, 0x00, 0x00, 0x00,
  0x63, 0x6e, 0x6e, 0x2d, 0x61, 0x63, 0x74, 0x69, 0x76, 0x69, 0x74, 0x79,
  0x2d, 0x6d, 0x6f, 0x64, 0x65, 0x6c, 0x2f, 0x66, 0x6c, 0x61, 0x74, 0x74,
  0x65, 0x6e, 0x2f, 0x43, 0x6f, 0x6e, 0x73, 0x74, 0x00, 0x00, 0x00, 0x00,
  0x24, 0xfd, 0xff, 0xff, 0x36, 0xfe, 0xff, 0xff, 0x04, 0x00, 0x00, 0x00,
  0x0c, 0x00, 0x00, 0x00, 0x5e, 0x84, 0xf4, 0x3e, 0x73, 0xd1, 0xca, 0xbe,
  0x93, 0x8b, 0xa3, 0xbe, 0x1a, 0xfe, 0xff, 0xff, 0x10, 0x00, 0x00, 0x00,
  0x05, 0x00, 0x00, 0x00, 0x10, 0x00, 0x00, 0x00, 0x4c, 0x00, 0x00, 0x00,
  0x01, 0x00, 0x00, 0x00, 0x03, 0x00, 0x00, 0x00, 0x39, 0x00, 0x00, 0x00,
  0x63, 0x6e, 0x6e, 0x2d, 0x61, 0x63, 0x74, 0x69, 0x76, 0x69, 0x74, 0x79,
  0x2d, 0x6d, 0x6f, 0x64, 0x65, 0x6c, 0x2f, 0x4f, 0x75, 0x74, 0x70, 0x75,
  0x74, 0x2f, 0x42, 0x69, 0x61, 0x73, 0x41, 0x64, 0x64, 0x2f, 0x52, 0x65,
  0x61, 0x64, 0x56, 0x61, 0x72, 0x69, 0x61, 0x62, 0x6c, 0x65, 0x4f, 0x70,
  0x2f, 0x72, 0x65, 0x73, 0x6f, 0x75, 0x72, 0x63, 0x65, 0x00, 0x00, 0x00,
  0x9c, 0xfd, 0xff, 0xff, 0xae, 0xfe, 0xff, 0xff, 0x04, 0x00, 0x00, 0x00,
  0x64, 0x00, 0x00, 0x00, 0xf7, 0x96, 0x05, 0x3f, 0x6d, 0x1e, 0xf1, 0x3e,
  0x1e, 0x0a, 0x04, 0x3f, 0xfe, 0x89, 0x2c, 0xbf, 0x3f, 0x4b, 0xa3, 0xbe,
  0xb0, 0xba, 0xf0, 0xbe, 0xe2, 0xeb, 0xf8, 0xbe, 0x17, 0x65, 0x18, 0x3e,
  0x99, 0x8c, 0x03, 0xbf, 0xb4, 0x42, 0x12, 0xbf, 0xb6, 0x21, 0x2d, 0xbf,
  0x15, 0x00, 0xcd, 0x3e, 0x27, 0x21, 0xce, 0x3e, 0xdc, 0x5b, 0x37, 0xbe,
  0x93, 0xf1, 0xc8, 0x3e, 0x41, 0x16, 0x5b, 0x3e, 0x31, 0xb7, 0xf8, 0xbd,
  0x7f, 0xd5, 0x3f, 0xbf, 0xed, 0x0f, 0x20, 0x3e, 0xa7, 0x47, 0x5e, 0xbf,
  0xf5, 0x8e, 0xe2, 0x3e, 0xc2, 0xed, 0x12, 0x3f, 0x08, 0x16, 0x14, 0xbf,
  0x57, 0xa9, 0x59, 0xbf, 0x4f, 0x3d, 0x08, 0x3f, 0xea, 0xfe, 0xff, 0xff,
  0x10, 0x00, 0x00, 0x00, 0x04, 0x00, 0x00, 0x00, 0x10, 0x00, 0x00, 0x00,
  0x4c, 0x00, 0x00, 0x00, 0x01, 0x00, 0x00, 0x00, 0x19, 0x00, 0x00, 0x00,
  0x39, 0x00, 0x00, 0x00, 0x63, 0x6e, 0x6e, 0x2d, 0x61, 0x63, 0x74, 0x69,
  0x76, 0x69, 0x74, 0x79, 0x2d, 0x6d, 0x6f, 0x64, 0x65, 0x6c, 0x2f, 0x44,
  0x65, 0x6e, 0x73, 0x65, 0x31, 0x2f, 0x42, 0x69, 0x61, 0x73, 0x41, 0x64,
  0x64, 0x2f, 0x52, 0x65, 0x61, 0x64, 0x56, 0x61, 0x72, 0x69, 0x61, 0x62,
  0x6c, 0x65, 0x4f, 0x70, 0x2f, 0x72, 0x65, 0x73, 0x6f, 0x75, 0x72, 0x63,
  0x65, 0x00, 0x00, 0x00, 0x6c, 0xfe, 0xff, 0xff, 0x7e, 0xff, 0xff, 0xff,
  0x04, 0x00, 0x00, 0x00, 0x10, 0x00, 0x00, 0x00, 0xd0, 0xe6, 0xc2, 0xbe,
  0xc2, 0x5e, 0xae, 0x3e, 0xee, 0xe4, 0xd4, 0xbe, 0x6a, 0x67, 0xab, 0x3e,
  0x66, 0xff, 0xff, 0xff, 0x10, 0x00, 0x00, 0x00, 0x03, 0x00, 0x00, 0x00,
  0x10, 0x00, 0x00, 0x00, 0x50, 0x00, 0x00, 0x00, 0x01, 0x00, 0x00, 0x00,
  0x04, 0x00, 0x00, 0x00, 0x3b, 0x00, 0x00, 0x00, 0x63, 0x6e, 0x6e, 0x2d,
  0x61, 0x63, 0x74, 0x69, 0x76, 0x69, 0x74, 0x79, 0x2d, 0x6d, 0x6f, 0x64,
  0x65, 0x6c, 0x2f, 0x43, 0x6f, 0x6e, 0x76, 0x32, 0x44, 0x2d, 0x32, 0x2f,
  0x42, 0x69, 0x61, 0x73, 0x41, 0x64, 0x64, 0x2f, 0x52, 0x65, 0x61, 0x64,
  0x56, 0x61, 0x72, 0x69, 0x61, 0x62, 0x6c, 0x65, 0x4f, 0x70, 0x2f, 0x72,
  0x65, 0x73, 0x6f, 0x75, 0x72, 0x63, 0x65, 0x00, 0x04, 0x00, 0x06, 0x00,
  0x04, 0x00, 0x00, 0x00, 0x00, 0x00, 0x06, 0x00, 0x08, 0x00, 0x04, 0x00,
  0x06, 0x00, 0x00, 0x00, 0x04, 0x00, 0x00, 0x00, 0x20, 0x00, 0x00, 0x00,
  0xb3, 0x00, 0x2c, 0xbe, 0xb7, 0xa3, 0x82, 0xbe, 0xac, 0x2a, 0xe1, 0x3c,
  0xcc, 0x09, 0x74, 0x3c, 0x4b, 0x9b, 0x87, 0x3e, 0x82, 0xb0, 0x22, 0x3e,
  0x59, 0x32, 0x82, 0xbc, 0x51, 0xdf, 0xd2, 0xbd, 0x00, 0x00, 0x0e, 0x00,
  0x14, 0x00, 0x04, 0x00, 0x00, 0x00, 0x08, 0x00, 0x0c, 0x00, 0x10, 0x00,
  0x0e, 0x00, 0x00, 0x00, 0x10, 0x00, 0x00, 0x00, 0x02, 0x00, 0x00, 0x00,
  0x10, 0x00, 0x00, 0x00, 0x4c, 0x00, 0x00, 0x00, 0x01, 0x00, 0x00, 0x00,
  0x08, 0x00, 0x00, 0x00, 0x3b, 0x00, 0x00, 0x00, 0x63, 0x6e, 0x6e, 0x2d,
  0x61, 0x63, 0x74, 0x69, 0x76, 0x69, 0x74, 0x79, 0x2d, 0x6d, 0x6f, 0x64,
  0x65, 0x6c, 0x2f, 0x43, 0x6f, 0x6e, 0x76, 0x32, 0x44, 0x2d, 0x31, 0x2f,
  0x42, 0x69, 0x61, 0x73, 0x41, 0x64, 0x64, 0x2f, 0x52, 0x65, 0x61, 0x64,
  0x56, 0x61, 0x72, 0x69, 0x61, 0x62, 0x6c, 0x65, 0x4f, 0x70, 0x2f, 0x72,
  0x65, 0x73, 0x6f, 0x75, 0x72, 0x63, 0x65, 0x00, 0x90, 0xff, 0xff, 0xff,
  0x14, 0x00, 0x18, 0x00, 0x04, 0x00, 0x00, 0x00, 0x08, 0x00, 0x0c, 0x00,
  0x10, 0x00, 0x00, 0x00, 0x00, 0x00, 0x14, 0x00, 0x14, 0x00, 0x00, 0x00,
  0x14, 0x00, 0x00, 0x00, 0x01, 0x00, 0x00, 0x00, 0x34, 0x00, 0x00, 0x00,
  0x44, 0x00, 0x00, 0x00, 0x18, 0x00, 0x00, 0x00, 0x04, 0x00, 0x00, 0x00,
  0x01, 0x00, 0x00, 0x00, 0x14, 0x00, 0x00, 0x00, 0x03, 0x00, 0x00, 0x00,
  0x01, 0x00, 0x00, 0x00, 0x04, 0x00, 0x00, 0x00, 0xff, 0xff, 0xff, 0xff,
  0x14, 0x00, 0x00, 0x00, 0x03, 0x00, 0x00, 0x00, 0x01, 0x00, 0x00, 0x00,
  0x0e, 0x00, 0x00, 0x00, 0x43, 0x6f, 0x6e, 0x76, 0x32, 0x44, 0x2d, 0x31,
  0x5f, 0x69, 0x6e, 0x70, 0x75, 0x74, 0x00, 0x00, 0xfc, 0xff, 0xff, 0xff,
  0x04, 0x00, 0x04, 0x00, 0x04, 0x00, 0x00, 0x00
};

