#ifndef LSTM_ACT_MODEL_H
#define LSTM_ACT_MODEL_H


unsigned int LSTM_ACT_MODEL_len = 8208;
alignas(8) const unsigned char LSTM_ACT_MODEL[] = {
 0x20, 0x00, 0x00, 0x00, 0x54, 0x46, 0x4c, 0x33, 0x00, 0x00, 0x00, 0x00,
  0x00, 0x00, 0x12, 0x00, 0x1c, 0x00, 0x04, 0x00, 0x08, 0x00, 0x0c, 0x00,
  0x10, 0x00, 0x14, 0x00, 0x00, 0x00, 0x18, 0x00, 0x12, 0x00, 0x00, 0x00,
  0x03, 0x00, 0x00, 0x00, 0x64, 0x1f, 0x00, 0x00, 0x1c, 0x0f, 0x00, 0x00,
  0x04, 0x0f, 0x00, 0x00, 0x3c, 0x00, 0x00, 0x00, 0x04, 0x00, 0x00, 0x00,
  0x01, 0x00, 0x00, 0x00, 0x0c, 0x00, 0x00, 0x00, 0x08, 0x00, 0x0c, 0x00,
  0x04, 0x00, 0x08, 0x00, 0x08, 0x00, 0x00, 0x00, 0x08, 0x00, 0x00, 0x00,
  0x1b, 0x00, 0x00, 0x00, 0x13, 0x00, 0x00, 0x00, 0x6d, 0x69, 0x6e, 0x5f,
  0x72, 0x75, 0x6e, 0x74, 0x69, 0x6d, 0x65, 0x5f, 0x76, 0x65, 0x72, 0x73,
  0x69, 0x6f, 0x6e, 0x00, 0x1c, 0x00, 0x00, 0x00, 0xb8, 0x0e, 0x00, 0x00,
  0xa4, 0x0e, 0x00, 0x00, 0x68, 0x0e, 0x00, 0x00, 0x44, 0x0e, 0x00, 0x00,
  0x30, 0x0e, 0x00, 0x00, 0x4c, 0x0d, 0x00, 0x00, 0x38, 0x0d, 0x00, 0x00,
  0x14, 0x0d, 0x00, 0x00, 0xf0, 0x0c, 0x00, 0x00, 0x9c, 0x06, 0x00, 0x00,
  0x28, 0x04, 0x00, 0x00, 0xf4, 0x02, 0x00, 0x00, 0x60, 0x01, 0x00, 0x00,
  0x3c, 0x01, 0x00, 0x00, 0x18, 0x01, 0x00, 0x00, 0x0c, 0x01, 0x00, 0x00,
  0xf8, 0x00, 0x00, 0x00, 0xe4, 0x00, 0x00, 0x00, 0xd0, 0x00, 0x00, 0x00,
  0xbc, 0x00, 0x00, 0x00, 0xa8, 0x00, 0x00, 0x00, 0x94, 0x00, 0x00, 0x00,
  0x80, 0x00, 0x00, 0x00, 0x6c, 0x00, 0x00, 0x00, 0x58, 0x00, 0x00, 0x00,
  0x44, 0x00, 0x00, 0x00, 0x30, 0x00, 0x00, 0x00, 0x04, 0x00, 0x00, 0x00,
  0x12, 0xf1, 0xff, 0xff, 0x04, 0x00, 0x00, 0x00, 0x10, 0x00, 0x00, 0x00,
  0x31, 0x2e, 0x31, 0x30, 0x2e, 0x30, 0x00, 0x00, 0x00, 0x00, 0x00, 0x00,
  0x00, 0x00, 0x00, 0x00, 0x00, 0x00, 0x00, 0x00, 0x00, 0x00, 0x00, 0x00,
  0x00, 0x00, 0x00, 0x00, 0xac, 0xe1, 0xff, 0xff, 0x00, 0x00, 0x00, 0x00,
  0x00, 0x00, 0x00, 0x00, 0x00, 0x00, 0x00, 0x00, 0xbc, 0xe1, 0xff, 0xff,
  0x00, 0x00, 0x00, 0x00, 0x00, 0x00, 0x00, 0x00, 0x00, 0x00, 0x00, 0x00,
  0xcc, 0xe1, 0xff, 0xff, 0x00, 0x00, 0x00, 0x00, 0x00, 0x00, 0x00, 0x00,
  0x00, 0x00, 0x00, 0x00, 0xdc, 0xe1, 0xff, 0xff, 0x00, 0x00, 0x00, 0x00,
  0x00, 0x00, 0x00, 0x00, 0x00, 0x00, 0x00, 0x00, 0xec, 0xe1, 0xff, 0xff,
  0x00, 0x00, 0x00, 0x00, 0x00, 0x00, 0x00, 0x00, 0x00, 0x00, 0x00, 0x00,
  0xfc, 0xe1, 0xff, 0xff, 0x00, 0x00, 0x00, 0x00, 0x00, 0x00, 0x00, 0x00,
  0x00, 0x00, 0x00, 0x00, 0x0c, 0xe2, 0xff, 0xff, 0x00, 0x00, 0x00, 0x00,
  0x00, 0x00, 0x00, 0x00, 0x00, 0x00, 0x00, 0x00, 0x1c, 0xe2, 0xff, 0xff,
  0x00, 0x00, 0x00, 0x00, 0x00, 0x00, 0x00, 0x00, 0x00, 0x00, 0x00, 0x00,
  0x2c, 0xe2, 0xff, 0xff, 0x00, 0x00, 0x00, 0x00, 0x00, 0x00, 0x00, 0x00,
  0x00, 0x00, 0x00, 0x00, 0x3c, 0xe2, 0xff, 0xff, 0x00, 0x00, 0x00, 0x00,
  0x00, 0x00, 0x00, 0x00, 0x00, 0x00, 0x00, 0x00, 0x4c, 0xe2, 0xff, 0xff,
  0x00, 0x00, 0x00, 0x00, 0x00, 0x00, 0x00, 0x00, 0x00, 0x00, 0x00, 0x00,
  0x5c, 0xe2, 0xff, 0xff, 0x00, 0x00, 0x00, 0x00, 0xf2, 0xf1, 0xff, 0xff,
  0x04, 0x00, 0x00, 0x00, 0x0c, 0x00, 0x00, 0x00, 0xff, 0xff, 0xff, 0xff,
  0x10, 0x00, 0x00, 0x00, 0x04, 0x00, 0x00, 0x00, 0x00, 0x00, 0x00, 0x00,
  0x00, 0x00, 0x00, 0x00, 0x12, 0xf2, 0xff, 0xff, 0x04, 0x00, 0x00, 0x00,
  0x0c, 0x00, 0x00, 0x00, 0xff, 0xff, 0xff, 0xff, 0x12, 0x00, 0x00, 0x00,
  0x08, 0x00, 0x00, 0x00, 0x00, 0x00, 0x00, 0x00, 0x00, 0x00, 0x00, 0x00,
  0x32, 0xf2, 0xff, 0xff, 0x04, 0x00, 0x00, 0x00, 0x80, 0x01, 0x00, 0x00,
  0xbf, 0xf2, 0x04, 0x3f, 0x91, 0xca, 0x36, 0xbe, 0xd4, 0xa0, 0x08, 0x3f,
  0xad, 0x3b, 0x9c, 0xbe, 0xd1, 0x75, 0xf2, 0xbe, 0x10, 0x9b, 0x99, 0xbe,
  0x34, 0x7e, 0x47, 0xbf, 0xbc, 0x68, 0x22, 0x3f, 0x3b, 0x2c, 0x8a, 0x3e,
  0x51, 0x9b, 0x82, 0x3d, 0x22, 0x0f, 0xa1, 0x3e, 0x39, 0x95, 0x0c, 0x3e,
  0xbd, 0xe8, 0xbb, 0xbd, 0xd1, 0xde, 0x19, 0xbe, 0x4e, 0xd3, 0x42, 0xbf,
  0x44, 0x7d, 0x29, 0x3e, 0xc4, 0x4b, 0xfd, 0xbf, 0x80, 0x5e, 0x90, 0x3d,
  0xbb, 0xb9, 0x07, 0xbf, 0x34, 0x80, 0x4a, 0xbf, 0xec, 0x55, 0x86, 0x3e,
  0xdf, 0xa7, 0x8a, 0x3e, 0x46, 0x62, 0x8c, 0xbf, 0xd5, 0xb3, 0xfc, 0x3d,
  0x2f, 0x4b, 0xd5, 0xbe, 0xa5, 0xe9, 0x73, 0xbe, 0xe5, 0x80, 0xaa, 0xbe,
  0x83, 0x0e, 0xd7, 0x3e, 0xb2, 0x9e, 0x06, 0x3e, 0x98, 0x23, 0x5a, 0xbf,
  0xdc, 0xa9, 0x1d, 0xbf, 0x78, 0x12, 0x32, 0x3f, 0x15, 0xdf, 0x89, 0xbc,
  0x3c, 0x1f, 0xf9, 0xbd, 0x27, 0x44, 0x82, 0x3e, 0xa7, 0x30, 0xca, 0x3d,
  0xd1, 0xef, 0xb9, 0x3d, 0x9e, 0x1f, 0x39, 0xbf, 0x5c, 0x00, 0x97, 0xbe,
  0xf9, 0x28, 0x1e, 0x3f, 0xc9, 0x70, 0x25, 0xbf, 0x9c, 0x29, 0x5e, 0x3a,
  0xbf, 0xc0, 0xad, 0x3d, 0x49, 0x38, 0x21, 0x3e, 0xf3, 0x1e, 0x2c, 0xbf,
  0xb2, 0x57, 0x7b, 0xbf, 0xc9, 0xc5, 0x2c, 0xbd, 0x93, 0xed, 0xd9, 0x3e,
  0x3f, 0xc6, 0x89, 0xbd, 0x2f, 0xc8, 0xa4, 0xbe, 0x2c, 0x5c, 0x00, 0xbe,
  0xb6, 0x0b, 0x02, 0xbe, 0x73, 0xa6, 0xd3, 0xbd, 0xe5, 0x30, 0x54, 0xbe,
  0x09, 0x65, 0xc6, 0x3f, 0x5c, 0x81, 0x85, 0xbe, 0x9c, 0xbd, 0xf5, 0xbe,
  0x15, 0x0a, 0xd0, 0x3e, 0xb6, 0x48, 0x87, 0xbd, 0x19, 0xe7, 0x40, 0xbe,
  0x3e, 0x73, 0xb5, 0x3e, 0xc6, 0x16, 0x99, 0xbc, 0xe4, 0x5b, 0xf1, 0x3e,
  0x82, 0x54, 0xbe, 0xbe, 0x7f, 0x4f, 0xce, 0xbe, 0x62, 0x24, 0xc5, 0x3e,
  0x7a, 0x4d, 0x80, 0x3d, 0x3b, 0xa3, 0xe1, 0x3e, 0xf3, 0xc7, 0x7d, 0x3e,
  0x5f, 0x83, 0xab, 0xbd, 0xbd, 0x09, 0x29, 0x3f, 0x08, 0xeb, 0x11, 0xbf,
  0x2f, 0x65, 0xdc, 0x3d, 0xca, 0xff, 0xaf, 0xbf, 0x7d, 0xda, 0xa2, 0xbe,
  0x0a, 0x98, 0x06, 0x3f, 0xb3, 0x9f, 0xa8, 0xbe, 0xcb, 0x37, 0xa7, 0x3e,
  0x08, 0x88, 0xf3, 0xbe, 0x9a, 0xd6, 0x9a, 0x3d, 0x0a, 0xd9, 0x0b, 0x3f,
  0x51, 0x00, 0x5d, 0xbf, 0x1d, 0x99, 0x70, 0x3e, 0x9e, 0x2a, 0xf3, 0x3e,
  0xb0, 0xe1, 0x60, 0x3d, 0xbe, 0x5f, 0x1a, 0x3f, 0xc3, 0x9e, 0xe7, 0xbe,
  0x08, 0xee, 0xd3, 0xbe, 0x86, 0xc0, 0xb4, 0xbc, 0x7e, 0xae, 0xac, 0xba,
  0x76, 0xc0, 0x1f, 0x3f, 0x42, 0x9a, 0x04, 0x3f, 0x8a, 0x59, 0xec, 0xbe,
  0xc3, 0x40, 0x73, 0x3e, 0xd3, 0xdc, 0x0a, 0x3e, 0x1c, 0x5c, 0xa7, 0xbe,
  0x00, 0x00, 0x00, 0x00, 0xc2, 0xf3, 0xff, 0xff, 0x04, 0x00, 0x00, 0x00,
  0x20, 0x01, 0x00, 0x00, 0xe2, 0xc3, 0x92, 0x3f, 0x40, 0xfb, 0x61, 0x3f,
  0x76, 0x80, 0x87, 0x3e, 0x64, 0x23, 0x50, 0x3f, 0xde, 0xcf, 0xca, 0x3d,
  0x56, 0x91, 0x49, 0xbe, 0xae, 0xd8, 0xb3, 0xbe, 0x69, 0x9f, 0xd8, 0xbe,
  0x82, 0xb5, 0xcf, 0xbe, 0x7e, 0x54, 0x59, 0xbe, 0xd7, 0x8e, 0x46, 0x3e,
  0x67, 0x5c, 0x3b, 0xbe, 0x43, 0xf4, 0x60, 0xbe, 0xa0, 0x21, 0x74, 0xbf,
  0x60, 0x5c, 0xb6, 0x3b, 0xc4, 0xbd, 0x6f, 0xbf, 0x5b, 0x7f, 0x85, 0x3c,
  0x3c, 0xf7, 0x03, 0xbf, 0x85, 0x22, 0x9a, 0xbe, 0xb7, 0x9f, 0x06, 0x3f,
  0x4c, 0x76, 0x03, 0xbf, 0x70, 0xbc, 0xc9, 0xbe, 0xaa, 0xb0, 0xec, 0x3e,
  0x7b, 0x6e, 0x4b, 0xbe, 0xa2, 0x54, 0xcd, 0xbe, 0x96, 0xd8, 0x25, 0xbf,
  0x1d, 0xf1, 0x89, 0x3c, 0xe4, 0x6e, 0x94, 0xbe, 0x9e, 0xf3, 0x21, 0x3e,
  0x9a, 0x55, 0xec, 0x3e, 0xb8, 0xac, 0x51, 0xbe, 0x2d, 0x85, 0x86, 0xbe,
  0x39, 0x27, 0xe0, 0x3e, 0x85, 0x14, 0x0e, 0x3e, 0x9b, 0xb7, 0x20, 0xbe,
  0x64, 0x83, 0x44, 0x3f, 0xb4, 0xa6, 0xe2, 0xbe, 0x1e, 0x17, 0x8f, 0xbe,
  0xc8, 0x55, 0x55, 0x3d, 0xdc, 0x3c, 0xaf, 0x3d, 0x54, 0x75, 0xaa, 0x3e,
  0x85, 0x99, 0x42, 0x3e, 0x49, 0x99, 0x17, 0x3f, 0x22, 0xfc, 0xac, 0x3e,
  0x30, 0x65, 0xb6, 0xbe, 0x2a, 0xd1, 0x47, 0xbd, 0xa1, 0xf6, 0x37, 0xbe,
  0xe9, 0xbf, 0xa7, 0xbe, 0xbd, 0x3a, 0x03, 0xbf, 0x1c, 0x05, 0xab, 0x3d,
  0x77, 0xaf, 0x11, 0xbf, 0xac, 0x13, 0x34, 0x3f, 0xd9, 0xcf, 0x84, 0xbe,
  0x3a, 0x65, 0xc9, 0xbe, 0x93, 0x73, 0x5f, 0x3c, 0xe5, 0x7f, 0x10, 0xbf,
  0x60, 0x32, 0x55, 0x3e, 0x38, 0xf0, 0x8c, 0xbf, 0xcb, 0x95, 0xc9, 0x3e,
  0x58, 0xf2, 0xbc, 0xbe, 0xed, 0x0f, 0xe6, 0x3e, 0xce, 0xef, 0x8e, 0x3e,
  0x9c, 0x9a, 0x0b, 0x3f, 0x92, 0x3d, 0x8c, 0xbe, 0x7e, 0xd6, 0x3d, 0xbf,
  0xd6, 0x55, 0x10, 0x3e, 0x29, 0x09, 0x74, 0xbb, 0x36, 0xf5, 0x06, 0xbf,
  0x3d, 0x17, 0x4e, 0xbe, 0x6b, 0xdc, 0xa7, 0x3d, 0x6d, 0x21, 0x53, 0xbf,
  0x00, 0x49, 0x5e, 0x3e, 0x00, 0x00, 0x00, 0x00, 0xf2, 0xf4, 0xff, 0xff,
  0x04, 0x00, 0x00, 0x00, 0x58, 0x02, 0x00, 0x00, 0x9e, 0x44, 0x41, 0xbf,
  0x11, 0xa9, 0x42, 0xbd, 0x06, 0x26, 0x31, 0xbf, 0x4f, 0x45, 0x5c, 0xbf,
  0xb8, 0x92, 0x77, 0xbe, 0xd0, 0xef, 0x85, 0xbf, 0xe8, 0x35, 0x89, 0xbf,
  0x28, 0x0f, 0x58, 0xbf, 0x49, 0x21, 0x80, 0x3f, 0xfc, 0xd1, 0xa9, 0x3f,
  0x88, 0x69, 0x54, 0x3f, 0xe8, 0xdd, 0x86, 0x3e, 0x5f, 0x7a, 0x5b, 0xbf,
  0x6c, 0x6b, 0xa6, 0xbf, 0x87, 0xd9, 0x8f, 0xbd, 0x26, 0x00, 0x8c, 0x3e,
  0xda, 0x1d, 0xad, 0x3f, 0x2d, 0x1a, 0x34, 0x3f, 0x7e, 0x27, 0x3d, 0x3f,
  0x2a, 0xbf, 0x87, 0x3f, 0x4e, 0xd8, 0x41, 0x3e, 0x4b, 0x1b, 0x22, 0x3f,
  0xc1, 0xe1, 0x06, 0x3f, 0xc7, 0xde, 0xeb, 0x3e, 0xd9, 0xeb, 0x54, 0x3e,
  0x51, 0xa2, 0x8b, 0x3e, 0x97, 0x68, 0x95, 0xbf, 0xb0, 0x67, 0x10, 0xbf,
  0x70, 0x47, 0x90, 0xbf, 0x7d, 0xe6, 0x8f, 0x3f, 0x21, 0x16, 0x28, 0x3e,
  0xe4, 0x3c, 0xc0, 0x3e, 0x80, 0x95, 0x06, 0x3e, 0x9d, 0x5e, 0xb4, 0xbc,
  0xa3, 0x2b, 0xb7, 0xbe, 0x2e, 0x87, 0x9c, 0xbe, 0x8f, 0x34, 0x41, 0xbf,
  0x4b, 0x7b, 0x63, 0x3f, 0x78, 0x69, 0xc8, 0x3c, 0x73, 0x82, 0xe9, 0x3e,
  0xc2, 0x16, 0xcc, 0xbe, 0xf6, 0x25, 0x83, 0xbf, 0x0f, 0xac, 0xd5, 0x3e,
  0xd0, 0x9e, 0x10, 0x3f, 0xc0, 0xae, 0x93, 0xbe, 0x09, 0x45, 0x2c, 0x3e,
  0x4a, 0x3c, 0x33, 0xbf, 0x23, 0xe9, 0xba, 0xbe, 0x9d, 0x9d, 0x14, 0x3f,
  0xcc, 0xd9, 0xb8, 0x3e, 0x31, 0xde, 0x71, 0x3e, 0xf7, 0x41, 0x77, 0xbf,
  0xa0, 0x64, 0x86, 0x3f, 0x21, 0x6b, 0xc3, 0xbf, 0x8b, 0x7b, 0x65, 0xbf,
  0xcf, 0xad, 0xc6, 0x3f, 0x87, 0x2e, 0x8e, 0xbe, 0x6c, 0x59, 0xea, 0xbe,
  0x1e, 0x0a, 0xb4, 0x3d, 0xfd, 0x0d, 0x28, 0xbe, 0x80, 0x0b, 0x89, 0xba,
  0x10, 0x83, 0x85, 0xbf, 0x60, 0xe1, 0xac, 0x3f, 0xfd, 0x30, 0xc5, 0x3f,
  0x0e, 0xc4, 0x30, 0x3f, 0x79, 0x18, 0xd6, 0x3e, 0xb8, 0xfa, 0x4e, 0xbe,
  0x75, 0xe9, 0x01, 0x3d, 0x43, 0x57, 0x08, 0xbf, 0x8e, 0x79, 0x5c, 0xbe,
  0x84, 0x3e, 0xaa, 0xbf, 0x82, 0x31, 0xbe, 0xbe, 0x8d, 0xab, 0x43, 0xbe,
  0xbf, 0xea, 0xbb, 0xbe, 0xe2, 0x93, 0xb8, 0xbe, 0xb4, 0x03, 0xd3, 0x3e,
  0xef, 0x1f, 0x06, 0x3f, 0x34, 0x33, 0x23, 0xbf, 0x5d, 0x3c, 0x76, 0xbf,
  0xb3, 0xd9, 0xc6, 0xbd, 0x7a, 0xa5, 0x86, 0xbe, 0x57, 0xdb, 0x88, 0xbe,
  0xb1, 0x53, 0xad, 0xbf, 0xec, 0x60, 0xa7, 0xbf, 0xe0, 0x60, 0xfb, 0xbd,
  0x49, 0x76, 0xaf, 0x3d, 0x1e, 0x72, 0x3d, 0xbe, 0x38, 0x02, 0xac, 0x3e,
  0x2e, 0x19, 0x90, 0xbf, 0xfd, 0xa0, 0x77, 0x3e, 0x35, 0xba, 0x1d, 0xbf,
  0xaf, 0x8d, 0x62, 0x3d, 0x7f, 0xfb, 0xef, 0xbf, 0xc2, 0xfb, 0x0f, 0xbf,
  0x93, 0x9b, 0x54, 0xbf, 0x54, 0xbb, 0x7b, 0xbf, 0xfa, 0x1e, 0x73, 0xbe,
  0x66, 0x05, 0x59, 0x3f, 0x5e, 0x41, 0x68, 0xbe, 0x03, 0x01, 0x08, 0xc0,
  0x44, 0xad, 0x07, 0x3f, 0x81, 0x61, 0x9f, 0x3e, 0x90, 0x91, 0x85, 0xbf,
  0x5d, 0x15, 0x52, 0x3f, 0xb6, 0xdf, 0x8c, 0x3e, 0x7e, 0x94, 0x8e, 0xbf,
  0xaf, 0xe7, 0x79, 0x3f, 0x52, 0xe3, 0x2c, 0x3f, 0x6f, 0xdf, 0x77, 0xbf,
  0x1f, 0x8f, 0x89, 0xbf, 0x46, 0x78, 0x09, 0xbf, 0xb0, 0x95, 0xa9, 0x3e,
  0x04, 0xb5, 0x17, 0xbe, 0xb0, 0x1e, 0x61, 0xbf, 0x0c, 0xfb, 0x63, 0xbf,
  0x39, 0xb5, 0x0f, 0xbf, 0x08, 0x24, 0x9f, 0xbf, 0x8a, 0xe7, 0xc0, 0xbf,
  0x96, 0x97, 0x59, 0xbf, 0x3d, 0x77, 0x97, 0xbf, 0x8f, 0xc9, 0x40, 0x3e,
  0xd1, 0xd2, 0x31, 0xbf, 0x0a, 0xb7, 0x59, 0xbf, 0x2d, 0x08, 0x03, 0xbf,
  0x82, 0x35, 0x8b, 0xbe, 0xdc, 0x76, 0x1c, 0xbf, 0x5b, 0x0a, 0x3e, 0x3f,
  0x38, 0xcf, 0x36, 0x3f, 0x4f, 0x19, 0x91, 0x3f, 0x57, 0x93, 0x80, 0xbf,
  0x6e, 0xbe, 0x04, 0x3f, 0xd6, 0xe2, 0x47, 0xbf, 0x4c, 0x05, 0x20, 0x3e,
  0xe6, 0x0d, 0xe0, 0xbc, 0x4e, 0x62, 0x14, 0x3f, 0xfe, 0x12, 0x31, 0xbf,
  0x00, 0xc9, 0x6a, 0x3f, 0xc6, 0xe9, 0x66, 0xbf, 0x87, 0x22, 0x81, 0xbd,
  0x35, 0xd9, 0x50, 0xbf, 0xca, 0xb2, 0x0e, 0x3e, 0xda, 0x61, 0x76, 0x3f,
  0x7a, 0xe0, 0xc7, 0x3e, 0x26, 0x4c, 0x8b, 0xbe, 0xf3, 0xb4, 0xd9, 0x3e,
  0x98, 0xa7, 0xe5, 0x3e, 0x4b, 0xd8, 0xbd, 0x3e, 0x7a, 0x82, 0x34, 0xbf,
  0x4c, 0x4d, 0x9f, 0xbf, 0x63, 0xa8, 0xa8, 0x3e, 0x00, 0x00, 0x00, 0x00,
  0x00, 0x00, 0x00, 0x00, 0x00, 0x00, 0x00, 0x00, 0x62, 0xf7, 0xff, 0xff,
  0x04, 0x00, 0x00, 0x00, 0x40, 0x06, 0x00, 0x00, 0xf4, 0x03, 0x1c, 0x00,
  0xfd, 0x0c, 0xeb, 0x03, 0x03, 0x02, 0x10, 0x07, 0xff, 0x13, 0xe6, 0x07,
  0xf6, 0x12, 0xf6, 0x0c, 0xf8, 0x1d, 0x00, 0x0c, 0x08, 0x20, 0x01, 0x00,
  0xed, 0x1a, 0x02, 0x0b, 0xf6, 0x17, 0xfc, 0xef, 0x0f, 0xf0, 0x12, 0xd6,
  0x04, 0x0a, 0x0a, 0xca, 0x0c, 0xf1, 0x00, 0xd3, 0xf3, 0x13, 0x05, 0xec,
  0xfa, 0x01, 0x16, 0xcd, 0xf9, 0x00, 0x13, 0xda, 0xf8, 0x11, 0x1d, 0xdb,
  0xd7, 0xf9, 0xaf, 0x19, 0xcd, 0xfb, 0xb0, 0x25, 0xde, 0x01, 0xc2, 0x11,
  0xdf, 0x04, 0xb3, 0x15, 0xd0, 0x12, 0xc1, 0x22, 0xd4, 0x0e, 0xb7, 0x29,
  0xcc, 0x06, 0xb8, 0x21, 0xe8, 0x0c, 0xbb, 0x1f, 0xdd, 0xfe, 0x03, 0xd4,
  0xe2, 0xe8, 0xdf, 0xc8, 0xec, 0xef, 0x19, 0xb3, 0xe5, 0xf0, 0x0d, 0xd5,
  0xdd, 0xf1, 0x17, 0xbe, 0xe4, 0xe7, 0x0b, 0xb8, 0xe4, 0xeb, 0x0c, 0xcf,
  0xd6, 0xe3, 0x0a, 0xc0, 0xee, 0xf4, 0x10, 0xe7, 0xf1, 0xfe, 0xfd, 0xbd,
  0xec, 0xf8, 0xfd, 0xdd, 0xe9, 0x04, 0x1b, 0xf4, 0xf0, 0x06, 0xed, 0xc1,
  0xe7, 0x26, 0x15, 0xc2, 0xff, 0x08, 0x15, 0xec, 0xec, 0xf1, 0xee, 0xd4,
  0xc9, 0xfb, 0xa4, 0x1b, 0xc8, 0x11, 0xaf, 0x23, 0xc7, 0x08, 0xab, 0x26,
  0xdb, 0x03, 0xb2, 0x25, 0xc8, 0x03, 0xa6, 0x26, 0xd2, 0x06, 0x98, 0x19,
  0xd2, 0xf8, 0xa3, 0x24, 0xdd, 0x0b, 0xa6, 0x18, 0xf8, 0x22, 0x06, 0xd9,
  0xf4, 0x08, 0x1a, 0xc7, 0xfe, 0x0c, 0x1f, 0xd7, 0xf8, 0x0c, 0x17, 0xe7,
  0xf4, 0x2a, 0xea, 0xd7, 0xf4, 0x22, 0xfb, 0xde, 0xed, 0x18, 0xf5, 0xda,
  0xf4, 0x0e, 0xf8, 0xe1, 0xe6, 0x07, 0x0e, 0xc7, 0xde, 0x0f, 0x19, 0xd7,
  0xef, 0xfe, 0x08, 0xd6, 0xeb, 0xf0, 0xdb, 0xce, 0xf3, 0x14, 0x1c, 0xc0,
  0xf4, 0x0e, 0x05, 0xc8, 0xdc, 0x07, 0x05, 0xf6, 0xed, 0x07, 0xfb, 0xe1,
  0x02, 0xf7, 0x05, 0x2f, 0xfa, 0xf3, 0x02, 0x2d, 0x27, 0xee, 0x04, 0x2a,
  0x1b, 0xfb, 0x03, 0x24, 0x28, 0xf9, 0x02, 0x29, 0x28, 0xfb, 0x06, 0x20,
  0xdc, 0xf1, 0x05, 0x37, 0x1b, 0xec, 0x01, 0x22, 0xf2, 0xf9, 0xf9, 0xec,
  0xd0, 0xec, 0xfd, 0x39, 0x2c, 0xf5, 0xff, 0xbb, 0x12, 0x00, 0xfc, 0xb5,
  0xe8, 0x01, 0xfd, 0x05, 0x2f, 0x06, 0xfb, 0xe6, 0x30, 0xf7, 0xfc, 0xec,
  0x34, 0xed, 0xfd, 0xe3, 0xd1, 0xf7, 0x03, 0x19, 0x28, 0xfc, 0x04, 0x0b,
  0x1d, 0xf4, 0x03, 0x24, 0xf3, 0xf5, 0x05, 0x36, 0x1e, 0xf4, 0x04, 0x1d,
  0x16, 0xfe, 0x05, 0x13, 0x20, 0xef, 0x02, 0x25, 0x25, 0xec, 0x00, 0x08,
  0x1a, 0xef, 0x12, 0xf8, 0xfc, 0xfd, 0xfa, 0xce, 0x13, 0x08, 0x0e, 0xd9,
  0xf9, 0xf8, 0xfe, 0xe5, 0x27, 0xf0, 0x10, 0xc4, 0x14, 0xed, 0x20, 0xd8,
  0x0d, 0x10, 0x06, 0xde, 0x14, 0x10, 0x0a, 0xca, 0xda, 0x09, 0xb5, 0x29,
  0xcc, 0xfa, 0x1a, 0x16, 0xdf, 0x23, 0xb6, 0x2c, 0xd2, 0x17, 0xc7, 0x22,
  0xcd, 0x0b, 0x22, 0x14, 0xdf, 0x00, 0x20, 0x2a, 0xd0, 0x02, 0xb1, 0x24,
  0xd4, 0x0c, 0xb5, 0x20, 0xcd, 0x0f, 0x9a, 0x1b, 0xda, 0x09, 0x98, 0x2e,
  0xec, 0x18, 0x9b, 0x26, 0xcc, 0x14, 0x9e, 0x21, 0xd1, 0x0d, 0x9b, 0x1b,
  0xd4, 0x0e, 0x9b, 0x33, 0xeb, 0x0d, 0xa1, 0x2b, 0xd0, 0x0c, 0x9b, 0x29,
  0xdd, 0xf7, 0xdb, 0x10, 0xd6, 0xfe, 0xd5, 0x28, 0xd7, 0xfa, 0xe3, 0x48,
  0xda, 0xfa, 0xda, 0x15, 0xde, 0xfb, 0xdb, 0x30, 0xdd, 0x06, 0xc8, 0x2f,
  0xe3, 0xf7, 0xe1, 0x12, 0xf5, 0xf8, 0xd8, 0x20, 0x05, 0xfa, 0xf9, 0xfd,
  0xf7, 0xfd, 0xf5, 0x1a, 0x0f, 0x00, 0xfb, 0x1a, 0x08, 0x16, 0xee, 0x23,
  0x0e, 0xfe, 0xf7, 0x25, 0x19, 0xf9, 0xf4, 0x0c, 0x19, 0x00, 0xf8, 0x0f,
  0x25, 0x0b, 0xf8, 0x12, 0x35, 0xf6, 0xff, 0x1a, 0xc7, 0xee, 0x04, 0x14,
  0x15, 0xfb, 0x04, 0x30, 0x22, 0x02, 0x06, 0x0d, 0x14, 0xf5, 0x03, 0xd4,
  0xa1, 0xed, 0xfe, 0x1d, 0x33, 0xf9, 0xfc, 0x1d, 0x08, 0xee, 0x06, 0xe4,
  0x1d, 0xf0, 0x00, 0x39, 0x20, 0xf6, 0xff, 0x14, 0x10, 0xf3, 0x02, 0x3c,
  0x1a, 0xfa, 0xfc, 0x47, 0x29, 0xfb, 0xfd, 0x48, 0x04, 0xed, 0x01, 0x31,
  0x28, 0xec, 0xfe, 0x36, 0x1a, 0xf1, 0xfe, 0x44, 0x25, 0xf5, 0xfb, 0x2d,
  0x23, 0xf7, 0x00, 0xc1, 0x04, 0xef, 0xfb, 0x1c, 0x0b, 0xf4, 0xfe, 0x28,
  0x29, 0xf4, 0x02, 0xe1, 0x21, 0xf3, 0xf8, 0x26, 0x28, 0xec, 0xfe, 0x1e,
  0x0a, 0xf0, 0x02, 0x16, 0x2f, 0xf2, 0x08, 0x2d, 0x1f, 0xf0, 0x03, 0x25,
  0x21, 0xec, 0x04, 0x1e, 0x21, 0xed, 0x04, 0x26, 0x03, 0xee, 0x03, 0x20,
  0x21, 0xe1, 0x01, 0x32, 0x1c, 0xf1, 0x02, 0x23, 0x0c, 0xf7, 0x02, 0x2d,
  0x19, 0x01, 0x08, 0xf5, 0x2a, 0x02, 0x00, 0xe9, 0x1e, 0x0c, 0xfe, 0xe6,
  0x11, 0x09, 0xe9, 0xe4, 0x28, 0xf8, 0xe9, 0xfd, 0x0f, 0xfb, 0x09, 0xe8,
  0xed, 0x0d, 0xfe, 0xf1, 0x16, 0x01, 0xfa, 0xf9, 0x22, 0xf7, 0xfd, 0xb9,
  0x0c, 0xf8, 0x02, 0x21, 0x18, 0xf6, 0x05, 0x13, 0x2f, 0xf7, 0x01, 0x0a,
  0x1e, 0xe8, 0x00, 0xf8, 0xfc, 0xeb, 0x01, 0x10, 0xf0, 0xef, 0x00, 0x1e,
  0x2e, 0xe6, 0x01, 0x1f, 0xaf, 0xf6, 0x0e, 0x0f, 0xea, 0xff, 0xca, 0x0f,
  0xd6, 0xff, 0x08, 0xb4, 0xb4, 0x03, 0xfe, 0xe0, 0xcf, 0x01, 0xea, 0x20,
  0xfb, 0xfe, 0x0b, 0xe1, 0xc3, 0xf7, 0x02, 0xe2, 0x0d, 0x01, 0xd8, 0x14,
  0x04, 0xfd, 0x05, 0x1c, 0x16, 0xf5, 0x0b, 0x21, 0x14, 0xe7, 0x05, 0x1c,
  0x1a, 0xf9, 0x06, 0x16, 0x2c, 0x00, 0x0c, 0x23, 0x2d, 0xf0, 0x02, 0x0c,
  0x2c, 0xfa, 0x02, 0x16, 0x04, 0xee, 0x02, 0x28, 0x22, 0xf7, 0x11, 0x0e,
  0x19, 0xf3, 0xfe, 0x17, 0xfe, 0xfa, 0x05, 0x24, 0x22, 0xef, 0x05, 0x1c,
  0x1b, 0xf1, 0x06, 0x14, 0xf4, 0xf1, 0x02, 0x07, 0x00, 0xfa, 0x06, 0x11,
  0x1e, 0xf2, 0x09, 0x11, 0x15, 0xfb, 0xfd, 0x22, 0x0c, 0xf6, 0x00, 0x25,
  0x14, 0x06, 0x01, 0x2a, 0x13, 0xff, 0xfe, 0x24, 0x1a, 0x00, 0xfe, 0x39,
  0x06, 0x09, 0xf9, 0x28, 0x08, 0xf5, 0xf9, 0x2b, 0x22, 0x04, 0x05, 0x17,
  0xf5, 0x17, 0xfc, 0x10, 0xf9, 0x1d, 0xf3, 0x05, 0x02, 0x08, 0x10, 0xfd,
  0xf3, 0x1a, 0xf3, 0x06, 0xf9, 0x09, 0xf7, 0x10, 0x03, 0x0f, 0xec, 0x0f,
  0xfa, 0x12, 0xff, 0x0a, 0xf4, 0x1e, 0x2b, 0x09, 0xec, 0xfa, 0x16, 0xd3,
  0xed, 0x0d, 0x19, 0xda, 0xe9, 0x18, 0xec, 0xdf, 0xf7, 0x10, 0x11, 0xdc,
  0xf3, 0xf4, 0x13, 0xce, 0xeb, 0x0c, 0xf2, 0xcf, 0xf0, 0xec, 0x15, 0xf2,
  0xf7, 0x19, 0xe8, 0xd3, 0xd8, 0xf2, 0x10, 0xc4, 0xe3, 0x08, 0x0d, 0xc2,
  0xe1, 0xed, 0xf4, 0xca, 0xe2, 0x05, 0x06, 0xca, 0xe0, 0xf1, 0xfb, 0xc7,
  0xd6, 0xed, 0x1c, 0xbf, 0xe1, 0x04, 0x03, 0xd7, 0xe3, 0x02, 0x05, 0xc8,
  0x1b, 0xf6, 0x02, 0xb9, 0xb2, 0xfd, 0x03, 0x34, 0x04, 0xf8, 0xff, 0x25,
  0xe1, 0xff, 0x09, 0x89, 0xd1, 0xfe, 0x04, 0x3a, 0x23, 0x08, 0xfd, 0x45,
  0x32, 0xfe, 0x00, 0x81, 0xc7, 0xf9, 0xff, 0xe5, 0xf9, 0xf1, 0x06, 0xd9,
  0xe4, 0xf1, 0x04, 0xda, 0xf8, 0x1b, 0x12, 0xbe, 0xdd, 0xf4, 0x10, 0xdc,
  0xfb, 0x17, 0x11, 0xbd, 0xe0, 0xfd, 0x1b, 0xd6, 0xf6, 0x1a, 0x1b, 0xe9,
  0xe7, 0x0e, 0x1a, 0xe4, 0x1d, 0xfb, 0x0b, 0x36, 0x23, 0xf5, 0x05, 0x39,
  0x2b, 0xff, 0x06, 0x32, 0x2a, 0xf5, 0x03, 0x2a, 0x13, 0xeb, 0x0b, 0x3b,
  0x1b, 0xf8, 0x00, 0x3d, 0x25, 0xf9, 0x0a, 0x2b, 0x1c, 0xdf, 0x00, 0x3f,
  0x27, 0x07, 0x20, 0x0b, 0x25, 0x11, 0x28, 0xfd, 0x30, 0x04, 0x20, 0xec,
  0x29, 0xf5, 0x1d, 0xfa, 0x27, 0x11, 0x1b, 0xf0, 0x1f, 0x0d, 0x32, 0xdd,
  0x21, 0x07, 0x11, 0xfb, 0x2b, 0xf0, 0x15, 0xf1, 0x27, 0xef, 0xfe, 0xe9,
  0x14, 0xeb, 0x0b, 0x05, 0x20, 0xfc, 0x13, 0x06, 0x31, 0xf5, 0x03, 0xf0,
  0x34, 0x02, 0x0b, 0xf4, 0x1b, 0xf8, 0x07, 0x01, 0x18, 0xfe, 0x0a, 0xe8,
  0x28, 0x02, 0x0e, 0xfd, 0xeb, 0x10, 0x11, 0xc7, 0xeb, 0x04, 0xf5, 0xee,
  0xe9, 0x03, 0x05, 0xe2, 0xf7, 0xfd, 0x0d, 0xd1, 0xe9, 0x17, 0x14, 0xd2,
  0xf1, 0x0a, 0x16, 0xe1, 0xf7, 0xee, 0xea, 0xeb, 0xec, 0x02, 0x09, 0xe6,
  0xd3, 0xf8, 0xdb, 0x21, 0xf5, 0xf8, 0xdb, 0x11, 0xec, 0xf3, 0xd7, 0x26,
  0xed, 0xf0, 0xd4, 0x12, 0xef, 0xe9, 0xd5, 0x0f, 0xec, 0x04, 0xce, 0x14,
  0xef, 0x03, 0xde, 0x06, 0xe7, 0xee, 0xd5, 0x02, 0x01, 0x17, 0xf6, 0xf0,
  0x02, 0x00, 0xef, 0x04, 0xfd, 0x18, 0x10, 0xea, 0xfd, 0x15, 0x0d, 0xdd,
  0x00, 0x0f, 0x21, 0xeb, 0x00, 0x1b, 0xf2, 0xe8, 0xff, 0x0a, 0xde, 0x04,
  0x03, 0x13, 0xf8, 0xef, 0x06, 0xf8, 0x02, 0x47, 0x26, 0xfc, 0x05, 0x39,
  0x1d, 0xfb, 0x08, 0x3e, 0x1d, 0xf8, 0x02, 0x3a, 0x16, 0xf0, 0x01, 0x3d,
  0x1d, 0xf1, 0xff, 0x3f, 0x22, 0xf1, 0x01, 0x14, 0xec, 0xfe, 0x00, 0x2a,
  0x2a, 0xf6, 0xf8, 0xdd, 0x08, 0x09, 0xf0, 0xcf, 0x29, 0x0b, 0xf5, 0xda,
  0x18, 0x21, 0xf2, 0xc9, 0x18, 0x18, 0x05, 0xa2, 0xf9, 0xfa, 0x04, 0xc8,
  0x0b, 0xf0, 0xfa, 0xf5, 0x34, 0xf9, 0xff, 0xb9, 0x0b, 0xf5, 0xff, 0x2e,
  0x1f, 0x04, 0x00, 0x42, 0x00, 0x00, 0x03, 0x47, 0x08, 0xfe, 0x04, 0x48,
  0x1d, 0xf7, 0x00, 0x40, 0x18, 0x0d, 0xff, 0x44, 0x1d, 0x0c, 0xfd, 0x37,
  0x21, 0xf8, 0xfd, 0x2e, 0xe4, 0x22, 0x0b, 0xeb, 0xea, 0xfc, 0x0a, 0xe8,
  0xf1, 0x11, 0x09, 0xd6, 0xf5, 0xfa, 0x0d, 0xd7, 0xe9, 0x1f, 0x0c, 0xd7,
  0xdc, 0xef, 0x15, 0xc0, 0xdd, 0xfd, 0x09, 0xf0, 0xd9, 0xed, 0x0e, 0xe5,
  0xff, 0x0b, 0xe5, 0xfc, 0xf9, 0x1e, 0x12, 0xe8, 0x03, 0x0f, 0x0e, 0xf0,
  0xf7, 0x1f, 0xff, 0xf2, 0x00, 0x0d, 0x01, 0xe3, 0xf8, 0x18, 0xe8, 0xce,
  0xed, 0x18, 0x1d, 0xff, 0xf4, 0x27, 0x01, 0xf4, 0x38, 0x17, 0x25, 0xfe,
  0x3d, 0x0b, 0x15, 0xfb, 0x31, 0x0d, 0x2f, 0x01, 0x35, 0x05, 0x12, 0xfc,
  0x29, 0x09, 0x32, 0x01, 0x2f, 0x01, 0x2b, 0x01, 0x1e, 0xe3, 0x1b, 0xfe,
  0x26, 0xf8, 0x19, 0x01, 0x2b, 0xed, 0x05, 0xfd, 0x27, 0xea, 0x10, 0x0e,
  0x10, 0xfc, 0x08, 0x0f, 0x19, 0xf4, 0x04, 0x20, 0x17, 0x03, 0x0c, 0x16,
  0x20, 0xe4, 0x06, 0x12, 0x14, 0xf7, 0x01, 0x11, 0x24, 0xf1, 0x09, 0x09,
  0xec, 0xf8, 0x19, 0xd7, 0xf1, 0x15, 0xe9, 0xee, 0x06, 0x08, 0xf2, 0xda,
  0xf3, 0x10, 0x13, 0xd5, 0x09, 0x09, 0x10, 0xd2, 0xe9, 0xff, 0x09, 0xd8,
  0x00, 0x07, 0xfa, 0xd9, 0xfe, 0xf3, 0x21, 0xd5, 0x26, 0x02, 0xdc, 0xf1,
  0x07, 0x08, 0xec, 0xe6, 0x0d, 0x0e, 0x1b, 0xed, 0x01, 0x0f, 0x0d, 0xd9,
  0x04, 0xee, 0x16, 0xc9, 0x16, 0xee, 0x00, 0xdb, 0x21, 0x0c, 0x18, 0xe8,
  0xe1, 0xfd, 0x13, 0xeb, 0xee, 0xf4, 0xf6, 0xdb, 0xe6, 0xf5, 0xfa, 0xda,
  0xe6, 0xfd, 0xfc, 0xd9, 0xef, 0x0b, 0xf3, 0xe8, 0xf3, 0xff, 0x15, 0xeb,
  0xeb, 0x19, 0x1a, 0xd5, 0xdd, 0x09, 0x11, 0xe5, 0xe7, 0x10, 0x0d, 0xe7,
  0xe3, 0x0e, 0xc4, 0x23, 0xd8, 0x0a, 0xb4, 0x15, 0xda, 0x0f, 0xb5, 0x20,
  0xe8, 0xff, 0xc2, 0x0f, 0xd7, 0xf9, 0xcb, 0x1a, 0xd7, 0x0b, 0xb4, 0x21,
  0xcc, 0x00, 0xc1, 0x1e, 0xdf, 0x04, 0xc3, 0x15, 0x1a, 0xf7, 0x07, 0x29,
  0x2c, 0xee, 0x03, 0x38, 0x27, 0xf6, 0x05, 0x2d, 0x11, 0xec, 0x03, 0x2e,
  0x1f, 0xf1, 0x01, 0x2e, 0x23, 0xf5, 0x05, 0x48, 0xcc, 0xf5, 0x04, 0x37,
  0x2a, 0xeb, 0x02, 0x41, 0x28, 0xf7, 0x34, 0xf5, 0x29, 0xfe, 0x37, 0xf9,
  0x1a, 0x04, 0x2d, 0xff, 0x39, 0x10, 0x1e, 0xf4, 0x42, 0xfd, 0x3b, 0xfe,
  0x25, 0x12, 0x35, 0xfb, 0x47, 0x05, 0x27, 0xfb, 0x3b, 0x10, 0x35, 0x0b,
  0x00, 0x00, 0x00, 0x00, 0xb2, 0xfd, 0xff, 0xff, 0x04, 0x00, 0x00, 0x00,
  0x08, 0x00, 0x00, 0x00, 0xff, 0xff, 0xff, 0xff, 0x20, 0x00, 0x00, 0x00,
  0x00, 0x00, 0x00, 0x00, 0x00, 0x00, 0x00, 0x00, 0x00, 0x00, 0x00, 0x00,
  0xd2, 0xfd, 0xff, 0xff, 0x04, 0x00, 0x00, 0x00, 0x0c, 0x00, 0x00, 0x00,
  0xf1, 0x32, 0x86, 0xbe, 0x01, 0x87, 0x71, 0x3e, 0xfc, 0xd9, 0x39, 0x3e,
  0x00, 0x00, 0x00, 0x00, 0x00, 0x00, 0x00, 0x00, 0xf2, 0xfd, 0xff, 0xff,
  0x04, 0x00, 0x00, 0x00, 0x04, 0x00, 0x00, 0x00, 0x02, 0x00, 0x00, 0x00,
  0x02, 0xfe, 0xff, 0xff, 0x04, 0x00, 0x00, 0x00, 0xc8, 0x00, 0x00, 0x00,
  0xc7, 0xe1, 0xeb, 0x3c, 0xc9, 0xaa, 0x8a, 0x3e, 0x12, 0xee, 0xd1, 0x3e,
  0xbb, 0x6e, 0x56, 0x3e, 0x18, 0x38, 0x01, 0x3e, 0xf2, 0x1e, 0xd0, 0x3e,
  0x04, 0x99, 0x2c, 0x3d, 0x56, 0x75, 0x80, 0x3c, 0x2b, 0xff, 0x96, 0xbe,
  0x09, 0x3b, 0xff, 0x3c, 0x6c, 0xaf, 0xaa, 0xbe, 0xae, 0x15, 0x68, 0x3e,
  0xc8, 0x79, 0x01, 0x3f, 0x81, 0x70, 0xca, 0x3e, 0xe6, 0x51, 0x25, 0x3e,
  0x27, 0x8a, 0x0a, 0x3f, 0x3a, 0xb4, 0xc3, 0xbe, 0x15, 0x6a, 0xf5, 0xbc,
  0xe4, 0x91, 0xae, 0xbc, 0x39, 0xa2, 0x0b, 0xbe, 0x8c, 0x25, 0x7d, 0x3d,
  0x66, 0x31, 0x50, 0xbe, 0x23, 0x3f, 0xfd, 0xbe, 0xfb, 0x48, 0x37, 0xbe,
  0xe0, 0x94, 0x7f, 0xbe, 0xa5, 0x5c, 0x2b, 0x3e, 0xc8, 0xa8, 0x06, 0x3d,
  0x99, 0x79, 0xa1, 0x3d, 0x05, 0xcb, 0x8a, 0x3e, 0x64, 0x96, 0x3e, 0xbe,
  0x92, 0x8e, 0x66, 0x3e, 0x8b, 0xce, 0x1a, 0xbe, 0xe2, 0xcc, 0x15, 0x3f,
  0x8c, 0x73, 0x84, 0x3d, 0x8a, 0xbd, 0xc6, 0x3d, 0xce, 0x33, 0x33, 0x3e,
  0xd6, 0xd4, 0xb5, 0xbc, 0x04, 0x6a, 0xca, 0xbd, 0x95, 0xe5, 0x22, 0x3e,
  0x13, 0xa9, 0xc0, 0x3c, 0x41, 0xf7, 0x17, 0x3e, 0x9b, 0xf6, 0x09, 0x3d,
  0xe0, 0xe4, 0xe9, 0x3d, 0x83, 0xff, 0x4b, 0xbe, 0x38, 0x98, 0x83, 0x3c,
  0x28, 0xa1, 0xcb, 0x3d, 0x6d, 0xb3, 0x46, 0x3d, 0x09, 0x50, 0xb7, 0x3e,
  0xa1, 0x61, 0x6c, 0xbe, 0x3f, 0x96, 0x7f, 0x3e, 0x00, 0x00, 0x00, 0x00,
  0x00, 0x00, 0x00, 0x00, 0x00, 0x00, 0x00, 0x00, 0xe2, 0xfe, 0xff, 0xff,
  0x04, 0x00, 0x00, 0x00, 0x04, 0x00, 0x00, 0x00, 0xfd, 0xff, 0xff, 0xff,
  0xf2, 0xfe, 0xff, 0xff, 0x04, 0x00, 0x00, 0x00, 0x10, 0x00, 0x00, 0x00,
  0xca, 0xdf, 0x2f, 0xbe, 0x55, 0x84, 0x98, 0xbe, 0x3e, 0x22, 0x9b, 0x3e,
  0x03, 0xeb, 0x84, 0xbe, 0x00, 0x00, 0x00, 0x00, 0x12, 0xff, 0xff, 0xff,
  0x04, 0x00, 0x00, 0x00, 0x20, 0x00, 0x00, 0x00, 0x25, 0x46, 0x51, 0xbe,
  0x80, 0xd7, 0x65, 0x3e, 0xda, 0x51, 0x07, 0xbd, 0x12, 0x9e, 0x01, 0x3e,
  0x90, 0x28, 0x3d, 0x3e, 0x69, 0xb5, 0x00, 0xbe, 0x2b, 0xd9, 0x08, 0x3e,
  0x53, 0x3b, 0x9e, 0xbd, 0x00, 0x00, 0x00, 0x00, 0x00, 0x00, 0x00, 0x00,
  0x00, 0x00, 0x00, 0x00, 0xbc, 0xef, 0xff, 0xff, 0x00, 0x00, 0x00, 0x00,
  0x00, 0x00, 0x00, 0x00, 0x00, 0x00, 0x00, 0x00, 0xcc, 0xef, 0xff, 0xff,
  0x00, 0x00, 0x00, 0x00, 0x0f, 0x00, 0x00, 0x00, 0x4d, 0x4c, 0x49, 0x52,
  0x20, 0x43, 0x6f, 0x6e, 0x76, 0x65, 0x72, 0x74, 0x65, 0x64, 0x2e, 0x00,
  0x01, 0x00, 0x00, 0x00, 0x14, 0x00, 0x00, 0x00, 0x00, 0x00, 0x0e, 0x00,
  0x18, 0x00, 0x04, 0x00, 0x08, 0x00, 0x0c, 0x00, 0x10, 0x00, 0x14, 0x00,
  0x0e, 0x00, 0x00, 0x00, 0x1c, 0x03, 0x00, 0x00, 0x10, 0x03, 0x00, 0x00,
  0x04, 0x03, 0x00, 0x00, 0x14, 0x00, 0x00, 0x00, 0x04, 0x00, 0x00, 0x00,
  0x04, 0x00, 0x00, 0x00, 0x6d, 0x61, 0x69, 0x6e, 0x00, 0x00, 0x00, 0x00,
  0x0c, 0x00, 0x00, 0x00, 0xbc, 0x02, 0x00, 0x00, 0x5c, 0x02, 0x00, 0x00,
  0x24, 0x02, 0x00, 0x00, 0xe8, 0x01, 0x00, 0x00, 0xa4, 0x01, 0x00, 0x00,
  0x7c, 0x01, 0x00, 0x00, 0x4c, 0x01, 0x00, 0x00, 0xf8, 0x00, 0x00, 0x00,
  0xc0, 0x00, 0x00, 0x00, 0x78, 0x00, 0x00, 0x00, 0x40, 0x00, 0x00, 0x00,
  0x04, 0x00, 0x00, 0x00, 0x2a, 0xff, 0xff, 0xff, 0x00, 0x00, 0x00, 0x09,
  0x05, 0x00, 0x00, 0x00, 0x24, 0x00, 0x00, 0x00, 0x18, 0x00, 0x00, 0x00,
  0x0c, 0x00, 0x00, 0x00, 0x00, 0x00, 0x06, 0x00, 0x08, 0x00, 0x04, 0x00,
  0x06, 0x00, 0x00, 0x00, 0x00, 0x00, 0x80, 0x3f, 0x01, 0x00, 0x00, 0x00,
  0x19, 0x00, 0x00, 0x00, 0x01, 0x00, 0x00, 0x00, 0x18, 0x00, 0x00, 0x00,
  0x16, 0xfe, 0xff, 0xff, 0x00, 0x00, 0x00, 0x08, 0x04, 0x00, 0x00, 0x00,
  0x18, 0x00, 0x00, 0x00, 0x0c, 0x00, 0x00, 0x00, 0x04, 0x00, 0x00, 0x00,
  0xa8, 0xf0, 0xff, 0xff, 0x01, 0x00, 0x00, 0x00, 0x18, 0x00, 0x00, 0x00,
  0x03, 0x00, 0x00, 0x00, 0x17, 0x00, 0x00, 0x00, 0x09, 0x00, 0x00, 0x00,
  0x06, 0x00, 0x00, 0x00, 0x4a, 0xfe, 0xff, 0xff, 0x00, 0x00, 0x00, 0x08,
  0x04, 0x00, 0x00, 0x00, 0x28, 0x00, 0x00, 0x00, 0x1c, 0x00, 0x00, 0x00,
  0x10, 0x00, 0x00, 0x00, 0x0c, 0x00, 0x08, 0x00, 0x06, 0x00, 0x00, 0x00,
  0x00, 0x00, 0x07, 0x00, 0x0c, 0x00, 0x00, 0x00, 0x00, 0x00, 0x01, 0x01,
  0x01, 0x00, 0x00, 0x00, 0x17, 0x00, 0x00, 0x00, 0x03, 0x00, 0x00, 0x00,
  0x16, 0x00, 0x00, 0x00, 0x08, 0x00, 0x00, 0x00, 0x04, 0x00, 0x00, 0x00,
  0xbe, 0xfe, 0xff, 0xff, 0x02, 0x00, 0x00, 0x00, 0x10, 0x00, 0x00, 0x00,
  0x04, 0x00, 0x00, 0x00, 0x01, 0x00, 0x00, 0x00, 0x16, 0x00, 0x00, 0x00,
  0x02, 0x00, 0x00, 0x00, 0x15, 0x00, 0x00, 0x00, 0x07, 0x00, 0x00, 0x00,
  0x00, 0x00, 0x0e, 0x00, 0x1a, 0x00, 0x08, 0x00, 0x0c, 0x00, 0x10, 0x00,
  0x07, 0x00, 0x14, 0x00, 0x0e, 0x00, 0x00, 0x00, 0x00, 0x00, 0x00, 0x05,
  0x03, 0x00, 0x00, 0x00, 0x3c, 0x00, 0x00, 0x00, 0x30, 0x00, 0x00, 0x00,
  0x14, 0x00, 0x00, 0x00, 0x00, 0x00, 0x0e, 0x00, 0x18, 0x00, 0x07, 0x00,
  0x08, 0x00, 0x0c, 0x00, 0x10, 0x00, 0x14, 0x00, 0x0e, 0x00, 0x00, 0x00,
  0x00, 0x00, 0x00, 0x01, 0x01, 0x00, 0x00, 0x00, 0x02, 0x00, 0x00, 0x00,
  0x01, 0x00, 0x00, 0x00, 0x02, 0x00, 0x00, 0x00, 0x01, 0x00, 0x00, 0x00,
  0x15, 0x00, 0x00, 0x00, 0x01, 0x00, 0x00, 0x00, 0x14, 0x00, 0x00, 0x00,
  0xb6, 0xfe, 0xff, 0xff, 0x00, 0x00, 0x00, 0x34, 0x18, 0x00, 0x00, 0x00,
  0x0c, 0x00, 0x00, 0x00, 0x04, 0x00, 0x00, 0x00, 0xa0, 0xf1, 0xff, 0xff,
  0x01, 0x00, 0x00, 0x00, 0x14, 0x00, 0x00, 0x00, 0x02, 0x00, 0x00, 0x00,
  0x13, 0x00, 0x00, 0x00, 0x05, 0x00, 0x00, 0x00, 0x6e, 0xff, 0xff, 0xff,
  0x02, 0x00, 0x00, 0x00, 0x10, 0x00, 0x00, 0x00, 0x04, 0x00, 0x00, 0x00,
  0x01, 0x00, 0x00, 0x00, 0x13, 0x00, 0x00, 0x00, 0x02, 0x00, 0x00, 0x00,
  0x12, 0x00, 0x00, 0x00, 0x0d, 0x00, 0x00, 0x00, 0x62, 0xff, 0xff, 0xff,
  0x00, 0x00, 0x00, 0x01, 0x01, 0x00, 0x00, 0x00, 0x24, 0x00, 0x00, 0x00,
  0x18, 0x00, 0x00, 0x00, 0x04, 0x00, 0x00, 0x00, 0x54, 0xff, 0xff, 0xff,
  0x00, 0x00, 0x01, 0x01, 0x01, 0x00, 0x00, 0x00, 0x01, 0x00, 0x00, 0x00,
  0x01, 0x00, 0x00, 0x00, 0x12, 0x00, 0x00, 0x00, 0x03, 0x00, 0x00, 0x00,
  0x11, 0x00, 0x00, 0x00, 0x0b, 0x00, 0x00, 0x00, 0x02, 0x00, 0x00, 0x00,
  0x46, 0xff, 0xff, 0xff, 0x00, 0x00, 0x00, 0x34, 0x18, 0x00, 0x00, 0x00,
  0x0c, 0x00, 0x00, 0x00, 0x04, 0x00, 0x00, 0x00, 0x30, 0xf2, 0xff, 0xff,
  0x01, 0x00, 0x00, 0x00, 0x11, 0x00, 0x00, 0x00, 0x02, 0x00, 0x00, 0x00,
  0x10, 0x00, 0x00, 0x00, 0x03, 0x00, 0x00, 0x00, 0x00, 0x00, 0x0a, 0x00,
  0x10, 0x00, 0x04, 0x00, 0x08, 0x00, 0x0c, 0x00, 0x0a, 0x00, 0x00, 0x00,
  0x02, 0x00, 0x00, 0x00, 0x10, 0x00, 0x00, 0x00, 0x04, 0x00, 0x00, 0x00,
  0x01, 0x00, 0x00, 0x00, 0x10, 0x00, 0x00, 0x00, 0x02, 0x00, 0x00, 0x00,
  0x0f, 0x00, 0x00, 0x00, 0x0c, 0x00, 0x00, 0x00, 0x00, 0x00, 0x0e, 0x00,
  0x18, 0x00, 0x08, 0x00, 0x0c, 0x00, 0x10, 0x00, 0x07, 0x00, 0x14, 0x00,
  0x0e, 0x00, 0x00, 0x00, 0x00, 0x00, 0x00, 0x01, 0x01, 0x00, 0x00, 0x00,
  0x30, 0x00, 0x00, 0x00, 0x24, 0x00, 0x00, 0x00, 0x10, 0x00, 0x00, 0x00,
  0x0c, 0x00, 0x10, 0x00, 0x06, 0x00, 0x08, 0x00, 0x0c, 0x00, 0x07, 0x00,
  0x0c, 0x00, 0x00, 0x00, 0x00, 0x00, 0x01, 0x01, 0x01, 0x00, 0x00, 0x00,
  0x01, 0x00, 0x00, 0x00, 0x01, 0x00, 0x00, 0x00, 0x0f, 0x00, 0x00, 0x00,
  0x03, 0x00, 0x00, 0x00, 0x0e, 0x00, 0x00, 0x00, 0x0a, 0x00, 0x00, 0x00,
  0x01, 0x00, 0x00, 0x00, 0x00, 0x00, 0x0e, 0x00, 0x14, 0x00, 0x00, 0x00,
  0x08, 0x00, 0x0c, 0x00, 0x07, 0x00, 0x10, 0x00, 0x0e, 0x00, 0x00, 0x00,
  0x00, 0x00, 0x00, 0x34, 0x18, 0x00, 0x00, 0x00, 0x0c, 0x00, 0x00, 0x00,
  0x04, 0x00, 0x00, 0x00, 0xf8, 0xf2, 0xff, 0xff, 0x01, 0x00, 0x00, 0x00,
  0x0e, 0x00, 0x00, 0x00, 0x02, 0x00, 0x00, 0x00, 0x00, 0x00, 0x00, 0x00,
  0x03, 0x00, 0x00, 0x00, 0x01, 0x00, 0x00, 0x00, 0x19, 0x00, 0x00, 0x00,
  0x01, 0x00, 0x00, 0x00, 0x00, 0x00, 0x00, 0x00, 0x1a, 0x00, 0x00, 0x00,
  0xb4, 0x0c, 0x00, 0x00, 0x3c, 0x0c, 0x00, 0x00, 0xc8, 0x0b, 0x00, 0x00,
  0x74, 0x0b, 0x00, 0x00, 0x00, 0x0b, 0x00, 0x00, 0xb4, 0x0a, 0x00, 0x00,
  0x50, 0x0a, 0x00, 0x00, 0x00, 0x0a, 0x00, 0x00, 0x70, 0x09, 0x00, 0x00,
  0x20, 0x09, 0x00, 0x00, 0xc8, 0x08, 0x00, 0x00, 0x70, 0x08, 0x00, 0x00,
  0x18, 0x08, 0x00, 0x00, 0xc0, 0x07, 0x00, 0x00, 0x44, 0x07, 0x00, 0x00,
  0x28, 0x06, 0x00, 0x00, 0x38, 0x05, 0x00, 0x00, 0xbc, 0x04, 0x00, 0x00,
  0xa0, 0x03, 0x00, 0x00, 0xb0, 0x02, 0x00, 0x00, 0x3c, 0x02, 0x00, 0x00,
  0xcc, 0x01, 0x00, 0x00, 0x6c, 0x01, 0x00, 0x00, 0xcc, 0x00, 0x00, 0x00,
  0x4c, 0x00, 0x00, 0x00, 0x04, 0x00, 0x00, 0x00, 0xc8, 0xf3, 0xff, 0xff,
  0x34, 0x00, 0x00, 0x00, 0x1a, 0x00, 0x00, 0x00, 0x1c, 0x00, 0x00, 0x00,
  0x14, 0x00, 0x00, 0x00, 0x04, 0x00, 0x00, 0x00, 0x02, 0x00, 0x00, 0x00,
  0xff, 0xff, 0xff, 0xff, 0x03, 0x00, 0x00, 0x00, 0xb0, 0xf3, 0xff, 0xff,
  0x08, 0x00, 0x00, 0x00, 0x49, 0x64, 0x65, 0x6e, 0x74, 0x69, 0x74, 0x79,
  0x00, 0x00, 0x00, 0x00, 0x02, 0x00, 0x00, 0x00, 0x01, 0x00, 0x00, 0x00,
  0x03, 0x00, 0x00, 0x00, 0x0c, 0xf4, 0xff, 0xff, 0x6c, 0x00, 0x00, 0x00,
  0x19, 0x00, 0x00, 0x00, 0x1c, 0x00, 0x00, 0x00, 0x14, 0x00, 0x00, 0x00,
  0x04, 0x00, 0x00, 0x00, 0x02, 0x00, 0x00, 0x00, 0xff, 0xff, 0xff, 0xff,
  0x03, 0x00, 0x00, 0x00, 0xf4, 0xf3, 0xff, 0xff, 0x42, 0x00, 0x00, 0x00,
  0x63, 0x6e, 0x6e, 0x2d, 0x61, 0x63, 0x74, 0x69, 0x76, 0x69, 0x74, 0x79,
  0x2d, 0x6d, 0x6f, 0x64, 0x65, 0x6c, 0x2f, 0x4f, 0x75, 0x74, 0x70, 0x75,
  0x74, 0x2f, 0x4d, 0x61, 0x74, 0x4d, 0x75, 0x6c, 0x3b, 0x63, 0x6e, 0x6e,
  0x2d, 0x61, 0x63, 0x74, 0x69, 0x76, 0x69, 0x74, 0x79, 0x2d, 0x6d, 0x6f,
  0x64, 0x65, 0x6c, 0x2f, 0x4f, 0x75, 0x74, 0x70, 0x75, 0x74, 0x2f, 0x42,
  0x69, 0x61, 0x73, 0x41, 0x64, 0x64, 0x00, 0x00, 0x02, 0x00, 0x00, 0x00,
  0x01, 0x00, 0x00, 0x00, 0x03, 0x00, 0x00, 0x00, 0x88, 0xf4, 0xff, 0xff,
  0x8c, 0x00, 0x00, 0x00, 0x18, 0x00, 0x00, 0x00, 0x1c, 0x00, 0x00, 0x00,
  0x14, 0x00, 0x00, 0x00, 0x04, 0x00, 0x00, 0x00, 0x02, 0x00, 0x00, 0x00,
  0xff, 0xff, 0xff, 0xff, 0x32, 0x00, 0x00, 0x00, 0x70, 0xf4, 0xff, 0xff,
  0x61, 0x00, 0x00, 0x00, 0x63, 0x6e, 0x6e, 0x2d, 0x61, 0x63, 0x74, 0x69,
  0x76, 0x69, 0x74, 0x79, 0x2d, 0x6d, 0x6f, 0x64, 0x65, 0x6c, 0x2f, 0x44,
  0x65, 0x6e, 0x73, 0x65, 0x31, 0x2f, 0x4d, 0x61, 0x74, 0x4d, 0x75, 0x6c,
  0x3b, 0x63, 0x6e, 0x6e, 0x2d, 0x61, 0x63, 0x74, 0x69, 0x76, 0x69, 0x74,
  0x79, 0x2d, 0x6d, 0x6f, 0x64, 0x65, 0x6c, 0x2f, 0x44, 0x65, 0x6e, 0x73,
  0x65, 0x31, 0x2f, 0x52, 0x65, 0x6c, 0x75, 0x3b, 0x63, 0x6e, 0x6e, 0x2d,
  0x61, 0x63, 0x74, 0x69, 0x76, 0x69, 0x74, 0x79, 0x2d, 0x6d, 0x6f, 0x64,
  0x65, 0x6c, 0x2f, 0x44, 0x65, 0x6e, 0x73, 0x65, 0x31, 0x2f, 0x42, 0x69,
  0x61, 0x73, 0x41, 0x64, 0x64, 0x00, 0x00, 0x00, 0x02, 0x00, 0x00, 0x00,
  0x01, 0x00, 0x00, 0x00, 0x32, 0x00, 0x00, 0x00, 0x24, 0xf5, 0xff, 0xff,
  0x4c, 0x00, 0x00, 0x00, 0x17, 0x00, 0x00, 0x00, 0x1c, 0x00, 0x00, 0x00,
  0x14, 0x00, 0x00, 0x00, 0x04, 0x00, 0x00, 0x00, 0x02, 0x00, 0x00, 0x00,
  0xff, 0xff, 0xff, 0xff, 0x20, 0x00, 0x00, 0x00, 0x0c, 0xf5, 0xff, 0xff,
  0x22, 0x00, 0x00, 0x00, 0x63, 0x6e, 0x6e, 0x2d, 0x61, 0x63, 0x74, 0x69,
  0x76, 0x69, 0x74, 0x79, 0x2d, 0x6d, 0x6f, 0x64, 0x65, 0x6c, 0x2f, 0x66,
  0x6c, 0x61, 0x74, 0x74, 0x65, 0x6e, 0x2f, 0x52, 0x65, 0x73, 0x68, 0x61,
  0x70, 0x65, 0x00, 0x00, 0x02, 0x00, 0x00, 0x00, 0x01, 0x00, 0x00, 0x00,
  0x20, 0x00, 0x00, 0x00, 0x80, 0xf5, 0xff, 0xff, 0x54, 0x00, 0x00, 0x00,
  0x16, 0x00, 0x00, 0x00, 0x24, 0x00, 0x00, 0x00, 0x1c, 0x00, 0x00, 0x00,
  0x04, 0x00, 0x00, 0x00, 0x04, 0x00, 0x00, 0x00, 0xff, 0xff, 0xff, 0xff,
  0x08, 0x00, 0x00, 0x00, 0x01, 0x00, 0x00, 0x00, 0x04, 0x00, 0x00, 0x00,
  0x70, 0xf5, 0xff, 0xff, 0x23, 0x00, 0x00, 0x00, 0x63, 0x6e, 0x6e, 0x2d,
  0x61, 0x63, 0x74, 0x69, 0x76, 0x69, 0x74, 0x79, 0x2d, 0x6d, 0x6f, 0x64,
  0x65, 0x6c, 0x2f, 0x4d, 0x61, 0x78, 0x50, 0x6f, 0x6f, 0x6c, 0x31, 0x2f,
  0x4d, 0x61, 0x78, 0x50, 0x6f, 0x6f, 0x6c, 0x00, 0x04, 0x00, 0x00, 0x00,
  0x01, 0x00, 0x00, 0x00, 0x08, 0x00, 0x00, 0x00, 0x01, 0x00, 0x00, 0x00,
  0x04, 0x00, 0x00, 0x00, 0xec, 0xf5, 0xff, 0xff, 0x58, 0x00, 0x00, 0x00,
  0x15, 0x00, 0x00, 0x00, 0x24, 0x00, 0x00, 0x00, 0x1c, 0x00, 0x00, 0x00,
  0x04, 0x00, 0x00, 0x00, 0x04, 0x00, 0x00, 0x00, 0xff, 0xff, 0xff, 0xff,
  0x10, 0x00, 0x00, 0x00, 0x01, 0x00, 0x00, 0x00, 0x04, 0x00, 0x00, 0x00,
  0xdc, 0xf5, 0xff, 0xff, 0x26, 0x00, 0x00, 0x00, 0x63, 0x6e, 0x6e, 0x2d,
  0x61, 0x63, 0x74, 0x69, 0x76, 0x69, 0x74, 0x79, 0x2d, 0x6d, 0x6f, 0x64,
  0x65, 0x6c, 0x2f, 0x4d, 0x61, 0x78, 0x50, 0x6f, 0x6f, 0x6c, 0x31, 0x2f,
  0x45, 0x78, 0x70, 0x61, 0x6e, 0x64, 0x44, 0x69, 0x6d, 0x73, 0x00, 0x00,
  0x04, 0x00, 0x00, 0x00, 0x01, 0x00, 0x00, 0x00, 0x10, 0x00, 0x00, 0x00,
  0x01, 0x00, 0x00, 0x00, 0x04, 0x00, 0x00, 0x00, 0x5c, 0xf6, 0xff, 0xff,
  0xd8, 0x00, 0x00, 0x00, 0x14, 0x00, 0x00, 0x00, 0x20, 0x00, 0x00, 0x00,
  0x18, 0x00, 0x00, 0x00, 0x04, 0x00, 0x00, 0x00, 0x03, 0x00, 0x00, 0x00,
  0xff, 0xff, 0xff, 0xff, 0x10, 0x00, 0x00, 0x00, 0x04, 0x00, 0x00, 0x00,
  0x48, 0xf6, 0xff, 0xff, 0xab, 0x00, 0x00, 0x00, 0x63, 0x6e, 0x6e, 0x2d,
  0x61, 0x63, 0x74, 0x69, 0x76, 0x69, 0x74, 0x79, 0x2d, 0x6d, 0x6f, 0x64,
  0x65, 0x6c, 0x2f, 0x43, 0x6f, 0x6e, 0x76, 0x31, 0x44, 0x2d, 0x32, 0x2f,
  0x52, 0x65, 0x6c, 0x75, 0x3b, 0x63, 0x6e, 0x6e, 0x2d, 0x61, 0x63, 0x74,
  0x69, 0x76, 0x69, 0x74, 0x79, 0x2d, 0x6d, 0x6f, 0x64, 0x65, 0x6c, 0x2f,
  0x43, 0x6f, 0x6e, 0x76, 0x31, 0x44, 0x2d, 0x32, 0x2f, 0x42, 0x69, 0x61,
  0x73, 0x41, 0x64, 0x64, 0x3b, 0x63, 0x6e, 0x6e, 0x2d, 0x61, 0x63, 0x74,
  0x69, 0x76, 0x69, 0x74, 0x79, 0x2d, 0x6d, 0x6f, 0x64, 0x65, 0x6c, 0x2f,
  0x43, 0x6f, 0x6e, 0x76, 0x31, 0x44, 0x2d, 0x32, 0x2f, 0x63, 0x6f, 0x6e,
  0x76, 0x31, 0x64, 0x2f, 0x53, 0x71, 0x75, 0x65, 0x65, 0x7a, 0x65, 0x3b,
  0x63, 0x6e, 0x6e, 0x2d, 0x61, 0x63, 0x74, 0x69, 0x76, 0x69, 0x74, 0x79,
  0x2d, 0x6d, 0x6f, 0x64, 0x65, 0x6c, 0x2f, 0x43, 0x6f, 0x6e, 0x76, 0x31,
  0x44, 0x2d, 0x32, 0x2f, 0x42, 0x69, 0x61, 0x73, 0x41, 0x64, 0x64, 0x2f,
  0x52, 0x65, 0x61, 0x64, 0x56, 0x61, 0x72, 0x69, 0x61, 0x62, 0x6c, 0x65,
  0x4f, 0x70, 0x2f, 0x72, 0x65, 0x73, 0x6f, 0x75, 0x72, 0x63, 0x65, 0x00,
  0x03, 0x00, 0x00, 0x00, 0x01, 0x00, 0x00, 0x00, 0x10, 0x00, 0x00, 0x00,
  0x04, 0x00, 0x00, 0x00, 0x48, 0xf7, 0xff, 0xff, 0x00, 0x01, 0x00, 0x00,
  0x13, 0x00, 0x00, 0x00, 0x24, 0x00, 0x00, 0x00, 0x1c, 0x00, 0x00, 0x00,
  0x04, 0x00, 0x00, 0x00, 0x04, 0x00, 0x00, 0x00, 0xff, 0xff, 0xff, 0xff,
  0x01, 0x00, 0x00, 0x00, 0x10, 0x00, 0x00, 0x00, 0x04, 0x00, 0x00, 0x00,
  0x38, 0xf7, 0xff, 0xff, 0xce, 0x00, 0x00, 0x00, 0x63, 0x6e, 0x6e, 0x2d,
  0x61, 0x63, 0x74, 0x69, 0x76, 0x69, 0x74, 0x79, 0x2d, 0x6d, 0x6f, 0x64,
  0x65, 0x6c, 0x2f, 0x43, 0x6f, 0x6e, 0x76, 0x31, 0x44, 0x2d, 0x32, 0x2f,
  0x52, 0x65, 0x6c, 0x75, 0x3b, 0x63, 0x6e, 0x6e, 0x2d, 0x61, 0x63, 0x74,
  0x69, 0x76, 0x69, 0x74, 0x79, 0x2d, 0x6d, 0x6f, 0x64, 0x65, 0x6c, 0x2f,
  0x43, 0x6f, 0x6e, 0x76, 0x31, 0x44, 0x2d, 0x32, 0x2f, 0x42, 0x69, 0x61,
  0x73, 0x41, 0x64, 0x64, 0x3b, 0x63, 0x6e, 0x6e, 0x2d, 0x61, 0x63, 0x74,
  0x69, 0x76, 0x69, 0x74, 0x79, 0x2d, 0x6d, 0x6f, 0x64, 0x65, 0x6c, 0x2f,
  0x43, 0x6f, 0x6e, 0x76, 0x31, 0x44, 0x2d, 0x32, 0x2f, 0x63, 0x6f, 0x6e,
  0x76, 0x31, 0x64, 0x2f, 0x53, 0x71, 0x75, 0x65, 0x65, 0x7a, 0x65, 0x3b,
  0x63, 0x6e, 0x6e, 0x2d, 0x61, 0x63, 0x74, 0x69, 0x76, 0x69, 0x74, 0x79,
  0x2d, 0x6d, 0x6f, 0x64, 0x65, 0x6c, 0x2f, 0x43, 0x6f, 0x6e, 0x76, 0x31,
  0x44, 0x2d, 0x32, 0x2f, 0x42, 0x69, 0x61, 0x73, 0x41, 0x64, 0x64, 0x2f,
  0x52, 0x65, 0x61, 0x64, 0x56, 0x61, 0x72, 0x69, 0x61, 0x62, 0x6c, 0x65,
  0x4f, 0x70, 0x2f, 0x72, 0x65, 0x73, 0x6f, 0x75, 0x72, 0x63, 0x65, 0x3b,
  0x63, 0x6e, 0x6e, 0x2d, 0x61, 0x63, 0x74, 0x69, 0x76, 0x69, 0x74, 0x79,
  0x2d, 0x6d, 0x6f, 0x64, 0x65, 0x6c, 0x2f, 0x43, 0x6f, 0x6e, 0x76, 0x31,
  0x44, 0x2d, 0x32, 0x2f, 0x63, 0x6f, 0x6e, 0x76, 0x31, 0x64, 0x00, 0x00,
  0x04, 0x00, 0x00, 0x00, 0x01, 0x00, 0x00, 0x00, 0x01, 0x00, 0x00, 0x00,
  0x10, 0x00, 0x00, 0x00, 0x04, 0x00, 0x00, 0x00, 0x60, 0xf8, 0xff, 0xff,
  0x60, 0x00, 0x00, 0x00, 0x12, 0x00, 0x00, 0x00, 0x24, 0x00, 0x00, 0x00,
  0x1c, 0x00, 0x00, 0x00, 0x04, 0x00, 0x00, 0x00, 0x04, 0x00, 0x00, 0x00,
  0xff, 0xff, 0xff, 0xff, 0x01, 0x00, 0x00, 0x00, 0x12, 0x00, 0x00, 0x00,
  0x08, 0x00, 0x00, 0x00, 0x50, 0xf8, 0xff, 0xff, 0x2d, 0x00, 0x00, 0x00,
  0x63, 0x6e, 0x6e, 0x2d, 0x61, 0x63, 0x74, 0x69, 0x76, 0x69, 0x74, 0x79,
  0x2d, 0x6d, 0x6f, 0x64, 0x65, 0x6c, 0x2f, 0x43, 0x6f, 0x6e, 0x76, 0x31,
  0x44, 0x2d, 0x32, 0x2f, 0x63, 0x6f, 0x6e, 0x76, 0x31, 0x64, 0x2f, 0x45,
  0x78, 0x70, 0x61, 0x6e, 0x64, 0x44, 0x69, 0x6d, 0x73, 0x00, 0x00, 0x00,
  0x04, 0x00, 0x00, 0x00, 0x01, 0x00, 0x00, 0x00, 0x01, 0x00, 0x00, 0x00,
  0x12, 0x00, 0x00, 0x00, 0x08, 0x00, 0x00, 0x00, 0xd8, 0xf8, 0xff, 0xff,
  0xd8, 0x00, 0x00, 0x00, 0x11, 0x00, 0x00, 0x00, 0x20, 0x00, 0x00, 0x00,
  0x18, 0x00, 0x00, 0x00, 0x04, 0x00, 0x00, 0x00, 0x03, 0x00, 0x00, 0x00,
  0xff, 0xff, 0xff, 0xff, 0x12, 0x00, 0x00, 0x00, 0x08, 0x00, 0x00, 0x00,
  0xc4, 0xf8, 0xff, 0xff, 0xab, 0x00, 0x00, 0x00, 0x63, 0x6e, 0x6e, 0x2d,
  0x61, 0x63, 0x74, 0x69, 0x76, 0x69, 0x74, 0x79, 0x2d, 0x6d, 0x6f, 0x64,
  0x65, 0x6c, 0x2f, 0x43, 0x6f, 0x6e, 0x76, 0x31, 0x44, 0x2d, 0x31, 0x2f,
  0x52, 0x65, 0x6c, 0x75, 0x3b, 0x63, 0x6e, 0x6e, 0x2d, 0x61, 0x63, 0x74,
  0x69, 0x76, 0x69, 0x74, 0x79, 0x2d, 0x6d, 0x6f, 0x64, 0x65, 0x6c, 0x2f,
  0x43, 0x6f, 0x6e, 0x76, 0x31, 0x44, 0x2d, 0x31, 0x2f, 0x42, 0x69, 0x61,
  0x73, 0x41, 0x64, 0x64, 0x3b, 0x63, 0x6e, 0x6e, 0x2d, 0x61, 0x63, 0x74,
  0x69, 0x76, 0x69, 0x74, 0x79, 0x2d, 0x6d, 0x6f, 0x64, 0x65, 0x6c, 0x2f,
  0x43, 0x6f, 0x6e, 0x76, 0x31, 0x44, 0x2d, 0x31, 0x2f, 0x63, 0x6f, 0x6e,
  0x76, 0x31, 0x64, 0x2f, 0x53, 0x71, 0x75, 0x65, 0x65, 0x7a, 0x65, 0x3b,
  0x63, 0x6e, 0x6e, 0x2d, 0x61, 0x63, 0x74, 0x69, 0x76, 0x69, 0x74, 0x79,
  0x2d, 0x6d, 0x6f, 0x64, 0x65, 0x6c, 0x2f, 0x43, 0x6f, 0x6e, 0x76, 0x31,
  0x44, 0x2d, 0x31, 0x2f, 0x42, 0x69, 0x61, 0x73, 0x41, 0x64, 0x64, 0x2f,
  0x52, 0x65, 0x61, 0x64, 0x56, 0x61, 0x72, 0x69, 0x61, 0x62, 0x6c, 0x65,
  0x4f, 0x70, 0x2f, 0x72, 0x65, 0x73, 0x6f, 0x75, 0x72, 0x63, 0x65, 0x00,
  0x03, 0x00, 0x00, 0x00, 0x01, 0x00, 0x00, 0x00, 0x12, 0x00, 0x00, 0x00,
  0x08, 0x00, 0x00, 0x00, 0xc4, 0xf9, 0xff, 0xff, 0x00, 0x01, 0x00, 0x00,
  0x10, 0x00, 0x00, 0x00, 0x24, 0x00, 0x00, 0x00, 0x1c, 0x00, 0x00, 0x00,
  0x04, 0x00, 0x00, 0x00, 0x04, 0x00, 0x00, 0x00, 0xff, 0xff, 0xff, 0xff,
  0x01, 0x00, 0x00, 0x00, 0x12, 0x00, 0x00, 0x00, 0x08, 0x00, 0x00, 0x00,
  0xb4, 0xf9, 0xff, 0xff, 0xce, 0x00, 0x00, 0x00, 0x63, 0x6e, 0x6e, 0x2d,
  0x61, 0x63, 0x74, 0x69, 0x76, 0x69, 0x74, 0x79, 0x2d, 0x6d, 0x6f, 0x64,
  0x65, 0x6c, 0x2f, 0x43, 0x6f, 0x6e, 0x76, 0x31, 0x44, 0x2d, 0x31, 0x2f,
  0x52, 0x65, 0x6c, 0x75, 0x3b, 0x63, 0x6e, 0x6e, 0x2d, 0x61, 0x63, 0x74,
  0x69, 0x76, 0x69, 0x74, 0x79, 0x2d, 0x6d, 0x6f, 0x64, 0x65, 0x6c, 0x2f,
  0x43, 0x6f, 0x6e, 0x76, 0x31, 0x44, 0x2d, 0x31, 0x2f, 0x42, 0x69, 0x61,
  0x73, 0x41, 0x64, 0x64, 0x3b, 0x63, 0x6e, 0x6e, 0x2d, 0x61, 0x63, 0x74,
  0x69, 0x76, 0x69, 0x74, 0x79, 0x2d, 0x6d, 0x6f, 0x64, 0x65, 0x6c, 0x2f,
  0x43, 0x6f, 0x6e, 0x76, 0x31, 0x44, 0x2d, 0x31, 0x2f, 0x63, 0x6f, 0x6e,
  0x76, 0x31, 0x64, 0x2f, 0x53, 0x71, 0x75, 0x65, 0x65, 0x7a, 0x65, 0x3b,
  0x63, 0x6e, 0x6e, 0x2d, 0x61, 0x63, 0x74, 0x69, 0x76, 0x69, 0x74, 0x79,
  0x2d, 0x6d, 0x6f, 0x64, 0x65, 0x6c, 0x2f, 0x43, 0x6f, 0x6e, 0x76, 0x31,
  0x44, 0x2d, 0x31, 0x2f, 0x42, 0x69, 0x61, 0x73, 0x41, 0x64, 0x64, 0x2f,
  0x52, 0x65, 0x61, 0x64, 0x56, 0x61, 0x72, 0x69, 0x61, 0x62, 0x6c, 0x65,
  0x4f, 0x70, 0x2f, 0x72, 0x65, 0x73, 0x6f, 0x75, 0x72, 0x63, 0x65, 0x3b,
  0x63, 0x6e, 0x6e, 0x2d, 0x61, 0x63, 0x74, 0x69, 0x76, 0x69, 0x74, 0x79,
  0x2d, 0x6d, 0x6f, 0x64, 0x65, 0x6c, 0x2f, 0x43, 0x6f, 0x6e, 0x76, 0x31,
  0x44, 0x2d, 0x31, 0x2f, 0x63, 0x6f, 0x6e, 0x76, 0x31, 0x64, 0x00, 0x00,
  0x04, 0x00, 0x00, 0x00, 0x01, 0x00, 0x00, 0x00, 0x01, 0x00, 0x00, 0x00,
  0x12, 0x00, 0x00, 0x00, 0x08, 0x00, 0x00, 0x00, 0xdc, 0xfa, 0xff, 0xff,
  0x60, 0x00, 0x00, 0x00, 0x0f, 0x00, 0x00, 0x00, 0x24, 0x00, 0x00, 0x00,
  0x1c, 0x00, 0x00, 0x00, 0x04, 0x00, 0x00, 0x00, 0x04, 0x00, 0x00, 0x00,
  0xff, 0xff, 0xff, 0xff, 0x01, 0x00, 0x00, 0x00, 0x14, 0x00, 0x00, 0x00,
  0x03, 0x00, 0x00, 0x00, 0xcc, 0xfa, 0xff, 0xff, 0x2d, 0x00, 0x00, 0x00,
  0x63, 0x6e, 0x6e, 0x2d, 0x61, 0x63, 0x74, 0x69, 0x76, 0x69, 0x74, 0x79,
  0x2d, 0x6d, 0x6f, 0x64, 0x65, 0x6c, 0x2f, 0x43, 0x6f, 0x6e, 0x76, 0x31,
  0x44, 0x2d, 0x31, 0x2f, 0x63, 0x6f, 0x6e, 0x76, 0x31, 0x64, 0x2f, 0x45,
  0x78, 0x70, 0x61, 0x6e, 0x64, 0x44, 0x69, 0x6d, 0x73, 0x00, 0x00, 0x00,
  0x04, 0x00, 0x00, 0x00, 0x01, 0x00, 0x00, 0x00, 0x01, 0x00, 0x00, 0x00,
  0x14, 0x00, 0x00, 0x00, 0x03, 0x00, 0x00, 0x00, 0xe6, 0xfd, 0xff, 0xff,
  0x00, 0x00, 0x00, 0x02, 0x44, 0x00, 0x00, 0x00, 0x0e, 0x00, 0x00, 0x00,
  0x0c, 0x00, 0x00, 0x00, 0x04, 0x00, 0x00, 0x00, 0x30, 0xfb, 0xff, 0xff,
  0x2a, 0x00, 0x00, 0x00, 0x63, 0x6e, 0x6e, 0x2d, 0x61, 0x63, 0x74, 0x69,
  0x76, 0x69, 0x74, 0x79, 0x2d, 0x6d, 0x6f, 0x64, 0x65, 0x6c, 0x2f, 0x43,
  0x6f, 0x6e, 0x76, 0x31, 0x44, 0x2d, 0x32, 0x2f, 0x63, 0x6f, 0x6e, 0x76,
  0x31, 0x64, 0x2f, 0x53, 0x71, 0x75, 0x65, 0x65, 0x7a, 0x65, 0x00, 0x00,
  0x01, 0x00, 0x00, 0x00, 0x03, 0x00, 0x00, 0x00, 0x3a, 0xfe, 0xff, 0xff,
  0x00, 0x00, 0x00, 0x02, 0x44, 0x00, 0x00, 0x00, 0x0d, 0x00, 0x00, 0x00,
  0x0c, 0x00, 0x00, 0x00, 0x04, 0x00, 0x00, 0x00, 0x84, 0xfb, 0xff, 0xff,
  0x2a, 0x00, 0x00, 0x00, 0x63, 0x6e, 0x6e, 0x2d, 0x61, 0x63, 0x74, 0x69,
  0x76, 0x69, 0x74, 0x79, 0x2d, 0x6d, 0x6f, 0x64, 0x65, 0x6c, 0x2f, 0x43,
  0x6f, 0x6e, 0x76, 0x31, 0x44, 0x2d, 0x31, 0x2f, 0x63, 0x6f, 0x6e, 0x76,
  0x31, 0x64, 0x2f, 0x53, 0x71, 0x75, 0x65, 0x65, 0x7a, 0x65, 0x00, 0x00,
  0x01, 0x00, 0x00, 0x00, 0x03, 0x00, 0x00, 0x00, 0x6a, 0xfc, 0xff, 0xff,
  0x3c, 0x00, 0x00, 0x00, 0x0c, 0x00, 0x00, 0x00, 0x0c, 0x00, 0x00, 0x00,
  0x04, 0x00, 0x00, 0x00, 0xd4, 0xfb, 0xff, 0xff, 0x22, 0x00, 0x00, 0x00,
  0x63, 0x6e, 0x6e, 0x2d, 0x61, 0x63, 0x74, 0x69, 0x76, 0x69, 0x74, 0x79,
  0x2d, 0x6d, 0x6f, 0x64, 0x65, 0x6c, 0x2f, 0x43, 0x6f, 0x6e, 0x76, 0x31,
  0x44, 0x2d, 0x32, 0x2f, 0x63, 0x6f, 0x6e, 0x76, 0x31, 0x64, 0x00, 0x00,
  0x04, 0x00, 0x00, 0x00, 0x04, 0x00, 0x00, 0x00, 0x01, 0x00, 0x00, 0x00,
  0x03, 0x00, 0x00, 0x00, 0x08, 0x00, 0x00, 0x00, 0xbe, 0xfc, 0xff, 0xff,
  0x3c, 0x00, 0x00, 0x00, 0x0b, 0x00, 0x00, 0x00, 0x0c, 0x00, 0x00, 0x00,
  0x04, 0x00, 0x00, 0x00, 0x28, 0xfc, 0xff, 0xff, 0x22, 0x00, 0x00, 0x00,
  0x63, 0x6e, 0x6e, 0x2d, 0x61, 0x63, 0x74, 0x69, 0x76, 0x69, 0x74, 0x79,
  0x2d, 0x6d, 0x6f, 0x64, 0x65, 0x6c, 0x2f, 0x43, 0x6f, 0x6e, 0x76, 0x31,
  0x44, 0x2d, 0x31, 0x2f, 0x63, 0x6f, 0x6e, 0x76, 0x31, 0x64, 0x00, 0x00,
  0x04, 0x00, 0x00, 0x00, 0x08, 0x00, 0x00, 0x00, 0x01, 0x00, 0x00, 0x00,
  0x03, 0x00, 0x00, 0x00, 0x03, 0x00, 0x00, 0x00, 0x12, 0xfd, 0xff, 0xff,
  0x3c, 0x00, 0x00, 0x00, 0x0a, 0x00, 0x00, 0x00, 0x0c, 0x00, 0x00, 0x00,
  0x04, 0x00, 0x00, 0x00, 0x7c, 0xfc, 0xff, 0xff, 0x20, 0x00, 0x00, 0x00,
  0x63, 0x6e, 0x6e, 0x2d, 0x61, 0x63, 0x74, 0x69, 0x76, 0x69, 0x74, 0x79,
  0x2d, 0x6d, 0x6f, 0x64, 0x65, 0x6c, 0x2f, 0x4f, 0x75, 0x74, 0x70, 0x75,
  0x74, 0x2f, 0x4d, 0x61, 0x74, 0x4d, 0x75, 0x6c, 0x00, 0x00, 0x00, 0x00,
  0x02, 0x00, 0x00, 0x00, 0x03, 0x00, 0x00, 0x00, 0x32, 0x00, 0x00, 0x00,
  0x82, 0xff, 0xff, 0xff, 0x00, 0x00, 0x00, 0x09, 0x68, 0x00, 0x00, 0x00,
  0x09, 0x00, 0x00, 0x00, 0x38, 0x00, 0x00, 0x00, 0x10, 0x00, 0x00, 0x00,
  0x0c, 0x00, 0x0c, 0x00, 0x00, 0x00, 0x00, 0x00, 0x04, 0x00, 0x08, 0x00,
  0x0c, 0x00, 0x00, 0x00, 0x18, 0x00, 0x00, 0x00, 0x04, 0x00, 0x00, 0x00,
  0x01, 0x00, 0x00, 0x00, 0x00, 0x00, 0x00, 0x00, 0x00, 0x00, 0x00, 0x00,
  0x00, 0x00, 0x00, 0x00, 0x01, 0x00, 0x00, 0x00, 0xc1, 0xc3, 0x81, 0x3c,
  0x20, 0x00, 0x00, 0x00, 0x63, 0x6e, 0x6e, 0x2d, 0x61, 0x63, 0x74, 0x69,
  0x76, 0x69, 0x74, 0x79, 0x2d, 0x6d, 0x6f, 0x64, 0x65, 0x6c, 0x2f, 0x44,
  0x65, 0x6e, 0x73, 0x65, 0x31, 0x2f, 0x4d, 0x61, 0x74, 0x4d, 0x75, 0x6c,
  0x00, 0x00, 0x00, 0x00, 0x02, 0x00, 0x00, 0x00, 0x32, 0x00, 0x00, 0x00,
  0x20, 0x00, 0x00, 0x00, 0x00, 0x00, 0x0e, 0x00, 0x18, 0x00, 0x08, 0x00,
  0x07, 0x00, 0x0c, 0x00, 0x10, 0x00, 0x14, 0x00, 0x0e, 0x00, 0x00, 0x00,
  0x00, 0x00, 0x00, 0x02, 0x3c, 0x00, 0x00, 0x00, 0x08, 0x00, 0x00, 0x00,
  0x0c, 0x00, 0x00, 0x00, 0x04, 0x00, 0x00, 0x00, 0x58, 0xfd, 0xff, 0xff,
  0x20, 0x00, 0x00, 0x00, 0x63, 0x6e, 0x6e, 0x2d, 0x61, 0x63, 0x74, 0x69,
  0x76, 0x69, 0x74, 0x79, 0x2d, 0x6d, 0x6f, 0x64, 0x65, 0x6c, 0x2f, 0x66,
  0x6c, 0x61, 0x74, 0x74, 0x65, 0x6e, 0x2f, 0x43, 0x6f, 0x6e, 0x73, 0x74,
  0x00, 0x00, 0x00, 0x00, 0x01, 0x00, 0x00, 0x00, 0x02, 0x00, 0x00, 0x00,
  0x36, 0xfe, 0xff, 0xff, 0x54, 0x00, 0x00, 0x00, 0x07, 0x00, 0x00, 0x00,
  0x0c, 0x00, 0x00, 0x00, 0x04, 0x00, 0x00, 0x00, 0xa0, 0xfd, 0xff, 0xff,
  0x39, 0x00, 0x00, 0x00, 0x63, 0x6e, 0x6e, 0x2d, 0x61, 0x63, 0x74, 0x69,
  0x76, 0x69, 0x74, 0x79, 0x2d, 0x6d, 0x6f, 0x64, 0x65, 0x6c, 0x2f, 0x4f,
  0x75, 0x74, 0x70, 0x75, 0x74, 0x2f, 0x42, 0x69, 0x61, 0x73, 0x41, 0x64,
  0x64, 0x2f, 0x52, 0x65, 0x61, 0x64, 0x56, 0x61, 0x72, 0x69, 0x61, 0x62,
  0x6c, 0x65, 0x4f, 0x70, 0x2f, 0x72, 0x65, 0x73, 0x6f, 0x75, 0x72, 0x63,
  0x65, 0x00, 0x00, 0x00, 0x01, 0x00, 0x00, 0x00, 0x03, 0x00, 0x00, 0x00,
  0x56, 0xff, 0xff, 0xff, 0x00, 0x00, 0x00, 0x02, 0x06, 0x00, 0x00, 0x00,
  0x0c, 0x00, 0x00, 0x00, 0x04, 0x00, 0x00, 0x00, 0x00, 0xfe, 0xff, 0xff,
  0x2a, 0x00, 0x00, 0x00, 0x63, 0x6e, 0x6e, 0x2d, 0x61, 0x63, 0x74, 0x69,
  0x76, 0x69, 0x74, 0x79, 0x2d, 0x6d, 0x6f, 0x64, 0x65, 0x6c, 0x2f, 0x4d,
  0x61, 0x78, 0x50, 0x6f, 0x6f, 0x6c, 0x31, 0x2f, 0x45, 0x78, 0x70, 0x61,
  0x6e, 0x64, 0x44, 0x69, 0x6d, 0x73, 0x2f, 0x64, 0x69, 0x6d, 0x00, 0x00,
  0xde, 0xfe, 0xff, 0xff, 0x54, 0x00, 0x00, 0x00, 0x05, 0x00, 0x00, 0x00,
  0x0c, 0x00, 0x00, 0x00, 0x04, 0x00, 0x00, 0x00, 0x48, 0xfe, 0xff, 0xff,
  0x39, 0x00, 0x00, 0x00, 0x63, 0x6e, 0x6e, 0x2d, 0x61, 0x63, 0x74, 0x69,
  0x76, 0x69, 0x74, 0x79, 0x2d, 0x6d, 0x6f, 0x64, 0x65, 0x6c, 0x2f, 0x44,
  0x65, 0x6e, 0x73, 0x65, 0x31, 0x2f, 0x42, 0x69, 0x61, 0x73, 0x41, 0x64,
  0x64, 0x2f, 0x52, 0x65, 0x61, 0x64, 0x56, 0x61, 0x72, 0x69, 0x61, 0x62,
  0x6c, 0x65, 0x4f, 0x70, 0x2f, 0x72, 0x65, 0x73, 0x6f, 0x75, 0x72, 0x63,
  0x65, 0x00, 0x00, 0x00, 0x01, 0x00, 0x00, 0x00, 0x32, 0x00, 0x00, 0x00,
  0x00, 0x00, 0x0e, 0x00, 0x14, 0x00, 0x00, 0x00, 0x07, 0x00, 0x08, 0x00,
  0x0c, 0x00, 0x10, 0x00, 0x0e, 0x00, 0x00, 0x00, 0x00, 0x00, 0x00, 0x02,
  0x04, 0x00, 0x00, 0x00, 0x0c, 0x00, 0x00, 0x00, 0x04, 0x00, 0x00, 0x00,
  0xb8, 0xfe, 0xff, 0xff, 0x31, 0x00, 0x00, 0x00, 0x63, 0x6e, 0x6e, 0x2d,
  0x61, 0x63, 0x74, 0x69, 0x76, 0x69, 0x74, 0x79, 0x2d, 0x6d, 0x6f, 0x64,
  0x65, 0x6c, 0x2f, 0x43, 0x6f, 0x6e, 0x76, 0x31, 0x44, 0x2d, 0x32, 0x2f,
  0x63, 0x6f, 0x6e, 0x76, 0x31, 0x64, 0x2f, 0x45, 0x78, 0x70, 0x61, 0x6e,
  0x64, 0x44, 0x69, 0x6d, 0x73, 0x2f, 0x64, 0x69, 0x6d, 0x00, 0x00, 0x00,
  0x9e, 0xff, 0xff, 0xff, 0x54, 0x00, 0x00, 0x00, 0x03, 0x00, 0x00, 0x00,
  0x0c, 0x00, 0x00, 0x00, 0x04, 0x00, 0x00, 0x00, 0x08, 0xff, 0xff, 0xff,
  0x3b, 0x00, 0x00, 0x00, 0x63, 0x6e, 0x6e, 0x2d, 0x61, 0x63, 0x74, 0x69,
  0x76, 0x69, 0x74, 0x79, 0x2d, 0x6d, 0x6f, 0x64, 0x65, 0x6c, 0x2f, 0x43,
  0x6f, 0x6e, 0x76, 0x31, 0x44, 0x2d, 0x32, 0x2f, 0x42, 0x69, 0x61, 0x73,
  0x41, 0x64, 0x64, 0x2f, 0x52, 0x65, 0x61, 0x64, 0x56, 0x61, 0x72, 0x69,
  0x61, 0x62, 0x6c, 0x65, 0x4f, 0x70, 0x2f, 0x72, 0x65, 0x73, 0x6f, 0x75,
  0x72, 0x63, 0x65, 0x00, 0x01, 0x00, 0x00, 0x00, 0x04, 0x00, 0x00, 0x00,
  0x00, 0x00, 0x0e, 0x00, 0x14, 0x00, 0x04, 0x00, 0x00, 0x00, 0x08, 0x00,
  0x0c, 0x00, 0x10, 0x00, 0x0e, 0x00, 0x00, 0x00, 0x54, 0x00, 0x00, 0x00,
  0x02, 0x00, 0x00, 0x00, 0x0c, 0x00, 0x00, 0x00, 0x04, 0x00, 0x00, 0x00,
  0x78, 0xff, 0xff, 0xff, 0x3b, 0x00, 0x00, 0x00, 0x63, 0x6e, 0x6e, 0x2d,
  0x61, 0x63, 0x74, 0x69, 0x76, 0x69, 0x74, 0x79, 0x2d, 0x6d, 0x6f, 0x64,
  0x65, 0x6c, 0x2f, 0x43, 0x6f, 0x6e, 0x76, 0x31, 0x44, 0x2d, 0x31, 0x2f,
  0x42, 0x69, 0x61, 0x73, 0x41, 0x64, 0x64, 0x2f, 0x52, 0x65, 0x61, 0x64,
  0x56, 0x61, 0x72, 0x69, 0x61, 0x62, 0x6c, 0x65, 0x4f, 0x70, 0x2f, 0x72,
  0x65, 0x73, 0x6f, 0x75, 0x72, 0x63, 0x65, 0x00, 0x01, 0x00, 0x00, 0x00,
  0x08, 0x00, 0x00, 0x00, 0x14, 0x00, 0x18, 0x00, 0x04, 0x00, 0x00, 0x00,
  0x08, 0x00, 0x0c, 0x00, 0x10, 0x00, 0x00, 0x00, 0x00, 0x00, 0x14, 0x00,
  0x14, 0x00, 0x00, 0x00, 0x40, 0x00, 0x00, 0x00, 0x01, 0x00, 0x00, 0x00,
  0x24, 0x00, 0x00, 0x00, 0x1c, 0x00, 0x00, 0x00, 0x04, 0x00, 0x00, 0x00,
  0x03, 0x00, 0x00, 0x00, 0xff, 0xff, 0xff, 0xff, 0x14, 0x00, 0x00, 0x00,
  0x03, 0x00, 0x00, 0x00, 0x04, 0x00, 0x04, 0x00, 0x04, 0x00, 0x00, 0x00,
  0x0e, 0x00, 0x00, 0x00, 0x43, 0x6f, 0x6e, 0x76, 0x31, 0x44, 0x2d, 0x31,
  0x5f, 0x69, 0x6e, 0x70, 0x75, 0x74, 0x00, 0x00, 0x03, 0x00, 0x00, 0x00,
  0x01, 0x00, 0x00, 0x00, 0x14, 0x00, 0x00, 0x00, 0x03, 0x00, 0x00, 0x00,
  0x06, 0x00, 0x00, 0x00, 0x74, 0x00, 0x00, 0x00, 0x54, 0x00, 0x00, 0x00,
  0x38, 0x00, 0x00, 0x00, 0x28, 0x00, 0x00, 0x00, 0x14, 0x00, 0x00, 0x00,
  0x04, 0x00, 0x00, 0x00, 0xb0, 0xff, 0xff, 0xff, 0x00, 0x00, 0x00, 0x19,
  0x19, 0x00, 0x00, 0x00, 0xd8, 0xff, 0xff, 0xff, 0x00, 0x00, 0x00, 0x09,
  0x09, 0x00, 0x00, 0x00, 0x09, 0x00, 0x00, 0x00, 0xcc, 0xff, 0xff, 0xff,
  0x00, 0x00, 0x00, 0x11, 0x11, 0x00, 0x00, 0x00, 0xd8, 0xff, 0xff, 0xff,
  0x00, 0x00, 0x00, 0x16, 0x16, 0x00, 0x00, 0x00, 0x0c, 0x00, 0x10, 0x00,
  0x07, 0x00, 0x00, 0x00, 0x08, 0x00, 0x0c, 0x00, 0x0c, 0x00, 0x00, 0x00,
  0x00, 0x00, 0x00, 0x03, 0x05, 0x00, 0x00, 0x00, 0x03, 0x00, 0x00, 0x00,
  0x0c, 0x00, 0x0c, 0x00, 0x07, 0x00, 0x00, 0x00, 0x00, 0x00, 0x08, 0x00,
  0x0c, 0x00, 0x00, 0x00, 0x00, 0x00, 0x00, 0x46, 0x46, 0x00, 0x00, 0x00
 
};

#endif //LSTM_ACT_MODEL_H