#include "activity_model.h"
const int activity_model_len = 8468;
alignas(8) const unsigned char activity_model[] = {
 0x1c, 0x00, 0x00, 0x00, 0x54, 0x46, 0x4c, 0x33, 0x14, 0x00, 0x20, 0x00,
  0x04, 0x00, 0x08, 0x00, 0x0c, 0x00, 0x10, 0x00, 0x14, 0x00, 0x00, 0x00,
  0x18, 0x00, 0x1c, 0x00, 0x14, 0x00, 0x00, 0x00, 0x03, 0x00, 0x00, 0x00,
  0x18, 0x00, 0x00, 0x00, 0x2c, 0x00, 0x00, 0x00, 0xd4, 0x00, 0x00, 0x00,
  0x2c, 0x00, 0x00, 0x00, 0x7c, 0x00, 0x00, 0x00, 0x74, 0x00, 0x00, 0x00,
  0x05, 0x00, 0x00, 0x00, 0xb4, 0x06, 0x00, 0x00, 0xa8, 0x04, 0x00, 0x00,
  0xd8, 0x03, 0x00, 0x00, 0xf8, 0x02, 0x00, 0x00, 0xa0, 0x01, 0x00, 0x00,
  0x01, 0x00, 0x00, 0x00, 0xcc, 0x00, 0x00, 0x00, 0x13, 0x00, 0x00, 0x00,
  0xb0, 0x20, 0x00, 0x00, 0xac, 0x20, 0x00, 0x00, 0xac, 0x1f, 0x00, 0x00,
  0x28, 0x1f, 0x00, 0x00, 0x54, 0x1e, 0x00, 0x00, 0xd8, 0x1d, 0x00, 0x00,
  0x64, 0x1d, 0x00, 0x00, 0x48, 0x0a, 0x00, 0x00, 0xc0, 0x08, 0x00, 0x00,
  0x2c, 0x08, 0x00, 0x00, 0x68, 0x07, 0x00, 0x00, 0x84, 0x20, 0x00, 0x00,
  0x80, 0x20, 0x00, 0x00, 0x7c, 0x20, 0x00, 0x00, 0x78, 0x20, 0x00, 0x00,
  0x74, 0x20, 0x00, 0x00, 0x70, 0x20, 0x00, 0x00, 0x6c, 0x20, 0x00, 0x00,
  0x3c, 0x00, 0x00, 0x00, 0x00, 0x00, 0x00, 0x00, 0x01, 0x00, 0x00, 0x00,
  0x0c, 0x00, 0x00, 0x00, 0x08, 0x00, 0x0c, 0x00, 0x04, 0x00, 0x08, 0x00,
  0x08, 0x00, 0x00, 0x00, 0x08, 0x00, 0x00, 0x00, 0x12, 0x00, 0x00, 0x00,
  0x13, 0x00, 0x00, 0x00, 0x6d, 0x69, 0x6e, 0x5f, 0x72, 0x75, 0x6e, 0x74,
  0x69, 0x6d, 0x65, 0x5f, 0x76, 0x65, 0x72, 0x73, 0x69, 0x6f, 0x6e, 0x00,
  0xd6, 0xe0, 0xff, 0xff, 0x04, 0x00, 0x00, 0x00, 0x10, 0x00, 0x00, 0x00,
  0x31, 0x2e, 0x35, 0x2e, 0x30, 0x00, 0x00, 0x00, 0x00, 0x00, 0x00, 0x00,
  0x00, 0x00, 0x00, 0x00, 0x0f, 0x00, 0x00, 0x00, 0x4d, 0x4c, 0x49, 0x52,
  0x20, 0x43, 0x6f, 0x6e, 0x76, 0x65, 0x72, 0x74, 0x65, 0x64, 0x2e, 0x00,
  0x00, 0x00, 0x0e, 0x00, 0x18, 0x00, 0x04, 0x00, 0x08, 0x00, 0x0c, 0x00,
  0x10, 0x00, 0x14, 0x00, 0x0e, 0x00, 0x00, 0x00, 0x14, 0x00, 0x00, 0x00,
  0x58, 0x00, 0x00, 0x00, 0x5c, 0x00, 0x00, 0x00, 0x60, 0x00, 0x00, 0x00,
  0x7c, 0x00, 0x00, 0x00, 0x11, 0x00, 0x00, 0x00, 0x74, 0x1f, 0x00, 0x00,
  0xfc, 0x1e, 0x00, 0x00, 0x60, 0x1e, 0x00, 0x00, 0xe8, 0x1d, 0x00, 0x00,
  0x14, 0x1d, 0x00, 0x00, 0xac, 0x1c, 0x00, 0x00, 0x38, 0x1c, 0x00, 0x00,
  0x1c, 0x09, 0x00, 0x00, 0x8c, 0x07, 0x00, 0x00, 0xf8, 0x06, 0x00, 0x00,
  0x9c, 0x05, 0x00, 0x00, 0x38, 0x04, 0x00, 0x00, 0x8c, 0x03, 0x00, 0x00,
  0xbc, 0x02, 0x00, 0x00, 0xdc, 0x01, 0x00, 0x00, 0x0c, 0x01, 0x00, 0x00,
  0x80, 0x00, 0x00, 0x00, 0x01, 0x00, 0x00, 0x00, 0x00, 0x00, 0x00, 0x00,
  0x01, 0x00, 0x00, 0x00, 0x10, 0x00, 0x00, 0x00, 0x07, 0x00, 0x00, 0x00,
  0x08, 0x05, 0x00, 0x00, 0xcc, 0x03, 0x00, 0x00, 0xfc, 0x02, 0x00, 0x00,
  0x58, 0x02, 0x00, 0x00, 0x5c, 0x01, 0x00, 0x00, 0xa8, 0x00, 0x00, 0x00,
  0x10, 0x00, 0x00, 0x00, 0x04, 0x00, 0x00, 0x00, 0x6d, 0x61, 0x69, 0x6e,
  0x00, 0x00, 0x00, 0x00, 0x7a, 0xff, 0xff, 0xff, 0x00, 0x00, 0x00, 0x09,
  0x04, 0x00, 0x00, 0x00, 0x1c, 0x00, 0x00, 0x00, 0x10, 0x00, 0x00, 0x00,
  0x04, 0x00, 0x00, 0x00, 0xca, 0xe1, 0xff, 0xff, 0x00, 0x00, 0x80, 0x3f,
  0x01, 0x00, 0x00, 0x00, 0x10, 0x00, 0x00, 0x00, 0x01, 0x00, 0x00, 0x00,
  0x0f, 0x00, 0x00, 0x00, 0x08, 0xfb, 0xff, 0xff, 0x19, 0x00, 0x00, 0x00,
  0x00, 0x00, 0x00, 0x19, 0x01, 0x00, 0x00, 0x00, 0x60, 0xe1, 0xff, 0xff,
  0x14, 0x00, 0x00, 0x00, 0x11, 0x00, 0x00, 0x00, 0x24, 0x00, 0x00, 0x00,
  0x30, 0x00, 0x00, 0x00, 0x10, 0x00, 0x00, 0x00, 0x02, 0x00, 0x00, 0x00,
  0x01, 0x00, 0x00, 0x00, 0x03, 0x00, 0x00, 0x00, 0x02, 0x00, 0x00, 0x00,
  0xff, 0xff, 0xff, 0xff, 0x03, 0x00, 0x00, 0x00, 0x08, 0x00, 0x00, 0x00,
  0x49, 0x64, 0x65, 0x6e, 0x74, 0x69, 0x74, 0x79, 0x00, 0x00, 0x00, 0x00,
  0x3c, 0xe2, 0xff, 0xff, 0x00, 0x00, 0x0e, 0x00, 0x18, 0x00, 0x08, 0x00,
  0x0c, 0x00, 0x10, 0x00, 0x07, 0x00, 0x14, 0x00, 0x0e, 0x00, 0x00, 0x00,
  0x00, 0x00, 0x00, 0x08, 0x03, 0x00, 0x00, 0x00, 0x18, 0x00, 0x00, 0x00,
  0x0c, 0x00, 0x00, 0x00, 0x04, 0x00, 0x00, 0x00, 0x60, 0xe1, 0xff, 0xff,
  0x01, 0x00, 0x00, 0x00, 0x0f, 0x00, 0x00, 0x00, 0x03, 0x00, 0x00, 0x00,
  0x0e, 0x00, 0x00, 0x00, 0x07, 0x00, 0x00, 0x00, 0x04, 0x00, 0x00, 0x00,
  0xe8, 0xe1, 0xff, 0xff, 0x14, 0x00, 0x00, 0x00, 0x10, 0x00, 0x00, 0x00,
  0x24, 0x00, 0x00, 0x00, 0x68, 0x00, 0x00, 0x00, 0x10, 0x00, 0x00, 0x00,
  0x02, 0x00, 0x00, 0x00, 0x01, 0x00, 0x00, 0x00, 0x03, 0x00, 0x00, 0x00,
  0x02, 0x00, 0x00, 0x00, 0xff, 0xff, 0xff, 0xff, 0x03, 0x00, 0x00, 0x00,
  0x42, 0x00, 0x00, 0x00, 0x63, 0x6e, 0x6e, 0x2d, 0x61, 0x63, 0x74, 0x69,
  0x76, 0x69, 0x74, 0x79, 0x2d, 0x6d, 0x6f, 0x64, 0x65, 0x6c, 0x2f, 0x4f,
  0x75, 0x74, 0x70, 0x75, 0x74, 0x2f, 0x4d, 0x61, 0x74, 0x4d, 0x75, 0x6c,
  0x3b, 0x63, 0x6e, 0x6e, 0x2d, 0x61, 0x63, 0x74, 0x69, 0x76, 0x69, 0x74,
  0x79, 0x2d, 0x6d, 0x6f, 0x64, 0x65, 0x6c, 0x2f, 0x4f, 0x75, 0x74, 0x70,
  0x75, 0x74, 0x2f, 0x42, 0x69, 0x61, 0x73, 0x41, 0x64, 0x64, 0x00, 0x00,
  0xf4, 0xe1, 0xff, 0xff, 0x76, 0xfe, 0xff, 0xff, 0x00, 0x00, 0x00, 0x08,
  0x03, 0x00, 0x00, 0x00, 0x24, 0x00, 0x00, 0x00, 0x18, 0x00, 0x00, 0x00,
  0x0c, 0x00, 0x00, 0x00, 0x00, 0x00, 0x06, 0x00, 0x08, 0x00, 0x07, 0x00,
  0x06, 0x00, 0x00, 0x00, 0x00, 0x00, 0x00, 0x01, 0x01, 0x00, 0x00, 0x00,
  0x0e, 0x00, 0x00, 0x00, 0x03, 0x00, 0x00, 0x00, 0x0d, 0x00, 0x00, 0x00,
  0x06, 0x00, 0x00, 0x00, 0x03, 0x00, 0x00, 0x00, 0x5c, 0xfc, 0xff, 0xff,
  0x09, 0x00, 0x00, 0x00, 0x00, 0x00, 0x00, 0x09, 0x01, 0x00, 0x00, 0x00,
  0xb4, 0xe2, 0xff, 0xff, 0x14, 0x00, 0x00, 0x00, 0x0f, 0x00, 0x00, 0x00,
  0x24, 0x00, 0x00, 0x00, 0x88, 0x00, 0x00, 0x00, 0x10, 0x00, 0x00, 0x00,
  0x02, 0x00, 0x00, 0x00, 0x01, 0x00, 0x00, 0x00, 0x19, 0x00, 0x00, 0x00,
  0x02, 0x00, 0x00, 0x00, 0xff, 0xff, 0xff, 0xff, 0x19, 0x00, 0x00, 0x00,
  0x61, 0x00, 0x00, 0x00, 0x63, 0x6e, 0x6e, 0x2d, 0x61, 0x63, 0x74, 0x69,
  0x76, 0x69, 0x74, 0x79, 0x2d, 0x6d, 0x6f, 0x64, 0x65, 0x6c, 0x2f, 0x44,
  0x65, 0x6e, 0x73, 0x65, 0x31, 0x2f, 0x4d, 0x61, 0x74, 0x4d, 0x75, 0x6c,
  0x3b, 0x63, 0x6e, 0x6e, 0x2d, 0x61, 0x63, 0x74, 0x69, 0x76, 0x69, 0x74,
  0x79, 0x2d, 0x6d, 0x6f, 0x64, 0x65, 0x6c, 0x2f, 0x44, 0x65, 0x6e, 0x73,
  0x65, 0x31, 0x2f, 0x52, 0x65, 0x6c, 0x75, 0x3b, 0x63, 0x6e, 0x6e, 0x2d,
  0x61, 0x63, 0x74, 0x69, 0x76, 0x69, 0x74, 0x79, 0x2d, 0x6d, 0x6f, 0x64,
  0x65, 0x6c, 0x2f, 0x44, 0x65, 0x6e, 0x73, 0x65, 0x31, 0x2f, 0x42, 0x69,
  0x61, 0x73, 0x41, 0x64, 0x64, 0x00, 0x00, 0x00, 0xe8, 0xe3, 0xff, 0xff,
  0x00, 0x00, 0x0a, 0x00, 0x10, 0x00, 0x04, 0x00, 0x08, 0x00, 0x0c, 0x00,
  0x0a, 0x00, 0x00, 0x00, 0x02, 0x00, 0x00, 0x00, 0x10, 0x00, 0x00, 0x00,
  0x04, 0x00, 0x00, 0x00, 0x01, 0x00, 0x00, 0x00, 0x0d, 0x00, 0x00, 0x00,
  0x02, 0x00, 0x00, 0x00, 0x0c, 0x00, 0x00, 0x00, 0x05, 0x00, 0x00, 0x00,
  0x38, 0xfd, 0xff, 0xff, 0x16, 0x00, 0x00, 0x00, 0x00, 0x00, 0x00, 0x16,
  0x01, 0x00, 0x00, 0x00, 0x90, 0xe3, 0xff, 0xff, 0x14, 0x00, 0x00, 0x00,
  0x0e, 0x00, 0x00, 0x00, 0x24, 0x00, 0x00, 0x00, 0x48, 0x00, 0x00, 0x00,
  0x10, 0x00, 0x00, 0x00, 0x02, 0x00, 0x00, 0x00, 0x01, 0x00, 0x00, 0x00,
  0x30, 0x00, 0x00, 0x00, 0x02, 0x00, 0x00, 0x00, 0xff, 0xff, 0xff, 0xff,
  0x30, 0x00, 0x00, 0x00, 0x22, 0x00, 0x00, 0x00, 0x63, 0x6e, 0x6e, 0x2d,
  0x61, 0x63, 0x74, 0x69, 0x76, 0x69, 0x74, 0x79, 0x2d, 0x6d, 0x6f, 0x64,
  0x65, 0x6c, 0x2f, 0x66, 0x6c, 0x61, 0x74, 0x74, 0x65, 0x6e, 0x2f, 0x52,
  0x65, 0x73, 0x68, 0x61, 0x70, 0x65, 0x00, 0x00, 0x84, 0xe4, 0xff, 0xff,
  0x00, 0x00, 0x0e, 0x00, 0x1a, 0x00, 0x08, 0x00, 0x0c, 0x00, 0x10, 0x00,
  0x07, 0x00, 0x14, 0x00, 0x0e, 0x00, 0x00, 0x00, 0x00, 0x00, 0x00, 0x05,
  0x01, 0x00, 0x00, 0x00, 0x3c, 0x00, 0x00, 0x00, 0x30, 0x00, 0x00, 0x00,
  0x14, 0x00, 0x00, 0x00, 0x00, 0x00, 0x0e, 0x00, 0x18, 0x00, 0x17, 0x00,
  0x10, 0x00, 0x0c, 0x00, 0x08, 0x00, 0x04, 0x00, 0x0e, 0x00, 0x00, 0x00,
  0x02, 0x00, 0x00, 0x00, 0x01, 0x00, 0x00, 0x00, 0x02, 0x00, 0x00, 0x00,
  0x01, 0x00, 0x00, 0x00, 0x00, 0x00, 0x00, 0x01, 0x01, 0x00, 0x00, 0x00,
  0x0c, 0x00, 0x00, 0x00, 0x01, 0x00, 0x00, 0x00, 0x0b, 0x00, 0x00, 0x00,
  0x04, 0xfe, 0xff, 0xff, 0x11, 0x00, 0x00, 0x00, 0x00, 0x00, 0x00, 0x11,
  0x01, 0x00, 0x00, 0x00, 0x5c, 0xe4, 0xff, 0xff, 0x14, 0x00, 0x00, 0x00,
  0x0d, 0x00, 0x00, 0x00, 0x34, 0x00, 0x00, 0x00, 0x58, 0x00, 0x00, 0x00,
  0x18, 0x00, 0x00, 0x00, 0x04, 0x00, 0x00, 0x00, 0x01, 0x00, 0x00, 0x00,
  0x08, 0x00, 0x00, 0x00, 0x03, 0x00, 0x00, 0x00, 0x02, 0x00, 0x00, 0x00,
  0x04, 0x00, 0x00, 0x00, 0xff, 0xff, 0xff, 0xff, 0x08, 0x00, 0x00, 0x00,
  0x03, 0x00, 0x00, 0x00, 0x02, 0x00, 0x00, 0x00, 0x23, 0x00, 0x00, 0x00,
  0x63, 0x6e, 0x6e, 0x2d, 0x61, 0x63, 0x74, 0x69, 0x76, 0x69, 0x74, 0x79,
  0x2d, 0x6d, 0x6f, 0x64, 0x65, 0x6c, 0x2f, 0x4d, 0x61, 0x78, 0x50, 0x6f,
  0x6f, 0x6c, 0x31, 0x2f, 0x4d, 0x61, 0x78, 0x50, 0x6f, 0x6f, 0x6c, 0x00,
  0x58, 0xe4, 0xff, 0xff, 0xd6, 0xfe, 0xff, 0xff, 0x00, 0x00, 0x00, 0x01,
  0x24, 0x00, 0x00, 0x00, 0x18, 0x00, 0x00, 0x00, 0x04, 0x00, 0x00, 0x00,
  0xc8, 0xfe, 0xff, 0xff, 0x01, 0x00, 0x00, 0x00, 0x01, 0x00, 0x00, 0x00,
  0x00, 0x00, 0x01, 0x01, 0x01, 0x00, 0x00, 0x00, 0x0b, 0x00, 0x00, 0x00,
  0x03, 0x00, 0x00, 0x00, 0x0a, 0x00, 0x00, 0x00, 0x09, 0x00, 0x00, 0x00,
  0x02, 0x00, 0x00, 0x00, 0x04, 0xe5, 0xff, 0xff, 0x14, 0x00, 0x00, 0x00,
  0x0c, 0x00, 0x00, 0x00, 0x34, 0x00, 0x00, 0x00, 0xd8, 0x00, 0x00, 0x00,
  0x18, 0x00, 0x00, 0x00, 0x04, 0x00, 0x00, 0x00, 0x01, 0x00, 0x00, 0x00,
  0x10, 0x00, 0x00, 0x00, 0x03, 0x00, 0x00, 0x00, 0x02, 0x00, 0x00, 0x00,
  0x04, 0x00, 0x00, 0x00, 0xff, 0xff, 0xff, 0xff, 0x10, 0x00, 0x00, 0x00,
  0x03, 0x00, 0x00, 0x00, 0x02, 0x00, 0x00, 0x00, 0xa3, 0x00, 0x00, 0x00,
  0x63, 0x6e, 0x6e, 0x2d, 0x61, 0x63, 0x74, 0x69, 0x76, 0x69, 0x74, 0x79,
  0x2d, 0x6d, 0x6f, 0x64, 0x65, 0x6c, 0x2f, 0x43, 0x6f, 0x6e, 0x76, 0x32,
  0x44, 0x2d, 0x32, 0x2f, 0x52, 0x65, 0x6c, 0x75, 0x3b, 0x63, 0x6e, 0x6e,
  0x2d, 0x61, 0x63, 0x74, 0x69, 0x76, 0x69, 0x74, 0x79, 0x2d, 0x6d, 0x6f,
  0x64, 0x65, 0x6c, 0x2f, 0x43, 0x6f, 0x6e, 0x76, 0x32, 0x44, 0x2d, 0x32,
  0x2f, 0x42, 0x69, 0x61, 0x73, 0x41, 0x64, 0x64, 0x3b, 0x63, 0x6e, 0x6e,
  0x2d, 0x61, 0x63, 0x74, 0x69, 0x76, 0x69, 0x74, 0x79, 0x2d, 0x6d, 0x6f,
  0x64, 0x65, 0x6c, 0x2f, 0x43, 0x6f, 0x6e, 0x76, 0x32, 0x44, 0x2d, 0x32,
  0x2f, 0x43, 0x6f, 0x6e, 0x76, 0x32, 0x44, 0x3b, 0x63, 0x6e, 0x6e, 0x2d,
  0x61, 0x63, 0x74, 0x69, 0x76, 0x69, 0x74, 0x79, 0x2d, 0x6d, 0x6f, 0x64,
  0x65, 0x6c, 0x2f, 0x43, 0x6f, 0x6e, 0x76, 0x32, 0x44, 0x2d, 0x32, 0x2f,
  0x42, 0x69, 0x61, 0x73, 0x41, 0x64, 0x64, 0x2f, 0x52, 0x65, 0x61, 0x64,
  0x56, 0x61, 0x72, 0x69, 0x61, 0x62, 0x6c, 0x65, 0x4f, 0x70, 0x2f, 0x72,
  0x65, 0x73, 0x6f, 0x75, 0x72, 0x63, 0x65, 0x00, 0x88, 0xe6, 0xff, 0xff,
  0x00, 0x00, 0x0e, 0x00, 0x14, 0x00, 0x00, 0x00, 0x08, 0x00, 0x0c, 0x00,
  0x07, 0x00, 0x10, 0x00, 0x0e, 0x00, 0x00, 0x00, 0x00, 0x00, 0x00, 0x01,
  0x30, 0x00, 0x00, 0x00, 0x24, 0x00, 0x00, 0x00, 0x10, 0x00, 0x00, 0x00,
  0x0c, 0x00, 0x10, 0x00, 0x0e, 0x00, 0x04, 0x00, 0x08, 0x00, 0x0f, 0x00,
  0x0c, 0x00, 0x00, 0x00, 0x01, 0x00, 0x00, 0x00, 0x01, 0x00, 0x00, 0x00,
  0x00, 0x00, 0x01, 0x01, 0x01, 0x00, 0x00, 0x00, 0x0a, 0x00, 0x00, 0x00,
  0x03, 0x00, 0x00, 0x00, 0x00, 0x00, 0x00, 0x00, 0x08, 0x00, 0x00, 0x00,
  0x01, 0x00, 0x00, 0x00, 0x0c, 0x00, 0x10, 0x00, 0x0b, 0x00, 0x00, 0x00,
  0x0c, 0x00, 0x04, 0x00, 0x0c, 0x00, 0x00, 0x00, 0x03, 0x00, 0x00, 0x00,
  0x00, 0x00, 0x00, 0x03, 0x01, 0x00, 0x00, 0x00, 0x64, 0xe6, 0xff, 0xff,
  0x14, 0x00, 0x00, 0x00, 0x0b, 0x00, 0x00, 0x00, 0x34, 0x00, 0x00, 0x00,
  0xd8, 0x00, 0x00, 0x00, 0x18, 0x00, 0x00, 0x00, 0x04, 0x00, 0x00, 0x00,
  0x01, 0x00, 0x00, 0x00, 0x12, 0x00, 0x00, 0x00, 0x03, 0x00, 0x00, 0x00,
  0x04, 0x00, 0x00, 0x00, 0x04, 0x00, 0x00, 0x00, 0xff, 0xff, 0xff, 0xff,
  0x12, 0x00, 0x00, 0x00, 0x03, 0x00, 0x00, 0x00, 0x04, 0x00, 0x00, 0x00,
  0xa3, 0x00, 0x00, 0x00, 0x63, 0x6e, 0x6e, 0x2d, 0x61, 0x63, 0x74, 0x69,
  0x76, 0x69, 0x74, 0x79, 0x2d, 0x6d, 0x6f, 0x64, 0x65, 0x6c, 0x2f, 0x43,
  0x6f, 0x6e, 0x76, 0x32, 0x44, 0x2d, 0x31, 0x2f, 0x52, 0x65, 0x6c, 0x75,
  0x3b, 0x63, 0x6e, 0x6e, 0x2d, 0x61, 0x63, 0x74, 0x69, 0x76, 0x69, 0x74,
  0x79, 0x2d, 0x6d, 0x6f, 0x64, 0x65, 0x6c, 0x2f, 0x43, 0x6f, 0x6e, 0x76,
  0x32, 0x44, 0x2d, 0x31, 0x2f, 0x42, 0x69, 0x61, 0x73, 0x41, 0x64, 0x64,
  0x3b, 0x63, 0x6e, 0x6e, 0x2d, 0x61, 0x63, 0x74, 0x69, 0x76, 0x69, 0x74,
  0x79, 0x2d, 0x6d, 0x6f, 0x64, 0x65, 0x6c, 0x2f, 0x43, 0x6f, 0x6e, 0x76,
  0x32, 0x44, 0x2d, 0x31, 0x2f, 0x43, 0x6f, 0x6e, 0x76, 0x32, 0x44, 0x3b,
  0x63, 0x6e, 0x6e, 0x2d, 0x61, 0x63, 0x74, 0x69, 0x76, 0x69, 0x74, 0x79,
  0x2d, 0x6d, 0x6f, 0x64, 0x65, 0x6c, 0x2f, 0x43, 0x6f, 0x6e, 0x76, 0x32,
  0x44, 0x2d, 0x31, 0x2f, 0x42, 0x69, 0x61, 0x73, 0x41, 0x64, 0x64, 0x2f,
  0x52, 0x65, 0x61, 0x64, 0x56, 0x61, 0x72, 0x69, 0x61, 0x62, 0x6c, 0x65,
  0x4f, 0x70, 0x2f, 0x72, 0x65, 0x73, 0x6f, 0x75, 0x72, 0x63, 0x65, 0x00,
  0xe0, 0xe6, 0xff, 0xff, 0xe2, 0xe7, 0xff, 0xff, 0x04, 0x00, 0x00, 0x00,
  0x60, 0x00, 0x00, 0x00, 0xc6, 0x11, 0x70, 0x3f, 0x98, 0x17, 0x65, 0xbe,
  0x4a, 0x83, 0xf3, 0x3e, 0x6b, 0x99, 0x12, 0xbe, 0x42, 0x5e, 0x31, 0x3f,
  0x23, 0xf7, 0x8c, 0xbe, 0xd3, 0x74, 0x0c, 0x3e, 0x9e, 0x3d, 0x86, 0xbe,
  0xab, 0x08, 0x8b, 0x3f, 0xdc, 0x85, 0x0f, 0x3f, 0xc2, 0xdf, 0x23, 0x3f,
  0xf8, 0xe7, 0xd9, 0x3d, 0xf8, 0x0a, 0x5c, 0x3f, 0x5f, 0xc3, 0x7f, 0xbf,
  0x06, 0x2b, 0x02, 0xbd, 0xf9, 0x1f, 0xd2, 0xbe, 0x6f, 0x6b, 0xb2, 0x3e,
  0x3d, 0x15, 0xf3, 0xbb, 0xbb, 0xe0, 0x41, 0x3f, 0x47, 0x7e, 0x14, 0xbf,
  0x2b, 0xaf, 0x72, 0x3f, 0xac, 0xa6, 0xcc, 0xbf, 0x6c, 0x58, 0xff, 0x3d,
  0xe4, 0xe0, 0xa4, 0xbe, 0x2a, 0xe8, 0xff, 0xff, 0x10, 0x00, 0x00, 0x00,
  0x0a, 0x00, 0x00, 0x00, 0x1c, 0x00, 0x00, 0x00, 0x40, 0x00, 0x00, 0x00,
  0x04, 0x00, 0x00, 0x00, 0x02, 0x00, 0x00, 0x00, 0x03, 0x00, 0x00, 0x00,
  0x01, 0x00, 0x00, 0x00, 0x04, 0x00, 0x00, 0x00, 0x22, 0x00, 0x00, 0x00,
  0x63, 0x6e, 0x6e, 0x2d, 0x61, 0x63, 0x74, 0x69, 0x76, 0x69, 0x74, 0x79,
  0x2d, 0x6d, 0x6f, 0x64, 0x65, 0x6c, 0x2f, 0x43, 0x6f, 0x6e, 0x76, 0x32,
  0x44, 0x2d, 0x32, 0x2f, 0x43, 0x6f, 0x6e, 0x76, 0x32, 0x44, 0x00, 0x00,
  0xa0, 0xe7, 0xff, 0xff, 0xa2, 0xe8, 0xff, 0xff, 0x04, 0x00, 0x00, 0x00,
  0x30, 0x00, 0x00, 0x00, 0x81, 0xa8, 0x1b, 0xbf, 0x53, 0xc9, 0xa8, 0xbd,
  0x4a, 0x2d, 0x1b, 0x3f, 0x32, 0x36, 0x82, 0xbe, 0x56, 0xb5, 0xc1, 0xbe,
  0x32, 0xfa, 0x24, 0xbf, 0x12, 0x35, 0x11, 0xbe, 0x1c, 0x42, 0xc8, 0x3d,
  0x5d, 0x19, 0x0e, 0x3f, 0x27, 0xcf, 0xc7, 0x3e, 0xe0, 0x16, 0xbf, 0xbd,
  0x8e, 0xcb, 0xaa, 0x3e, 0xba, 0xe8, 0xff, 0xff, 0x10, 0x00, 0x00, 0x00,
  0x09, 0x00, 0x00, 0x00, 0x1c, 0x00, 0x00, 0x00, 0x40, 0x00, 0x00, 0x00,
  0x04, 0x00, 0x00, 0x00, 0x04, 0x00, 0x00, 0x00, 0x03, 0x00, 0x00, 0x00,
  0x01, 0x00, 0x00, 0x00, 0x01, 0x00, 0x00, 0x00, 0x22, 0x00, 0x00, 0x00,
  0x63, 0x6e, 0x6e, 0x2d, 0x61, 0x63, 0x74, 0x69, 0x76, 0x69, 0x74, 0x79,
  0x2d, 0x6d, 0x6f, 0x64, 0x65, 0x6c, 0x2f, 0x43, 0x6f, 0x6e, 0x76, 0x32,
  0x44, 0x2d, 0x31, 0x2f, 0x43, 0x6f, 0x6e, 0x76, 0x32, 0x44, 0x00, 0x00,
  0x30, 0xe8, 0xff, 0xff, 0x32, 0xe9, 0xff, 0xff, 0x04, 0x00, 0x00, 0x00,
  0x2c, 0x01, 0x00, 0x00, 0xb8, 0xd3, 0xbb, 0xbd, 0xa1, 0xeb, 0x47, 0x3f,
  0xee, 0x23, 0xcf, 0xbe, 0x46, 0x9c, 0xc2, 0x3e, 0xbf, 0xa0, 0x82, 0xbf,
  0xb8, 0xd3, 0x3f, 0x3f, 0xd5, 0x45, 0xf3, 0x3e, 0xca, 0xf9, 0x5b, 0xbf,
  0x3e, 0x17, 0x20, 0x3f, 0xe4, 0xbf, 0xf1, 0x3e, 0x66, 0xa9, 0x02, 0x3f,
  0xdd, 0x2f, 0xec, 0x3e, 0x11, 0x47, 0x8b, 0x3e, 0x8e, 0x50, 0xef, 0x3e,
  0xed, 0x69, 0x91, 0x3d, 0x92, 0x35, 0xf9, 0x3e, 0xd6, 0xff, 0xa7, 0xbf,
  0xce, 0xae, 0x58, 0xbf, 0xca, 0x78, 0x47, 0xbf, 0x31, 0x95, 0xa3, 0x3e,
  0xd6, 0x52, 0x35, 0xbe, 0x25, 0x4b, 0xd1, 0x3e, 0xb0, 0x3d, 0x17, 0xbf,
  0xd2, 0x36, 0x3b, 0x3e, 0x88, 0x16, 0x78, 0xbe, 0x9d, 0x21, 0x47, 0xbf,
  0x90, 0x9f, 0xb3, 0x3d, 0xbc, 0xc4, 0xd1, 0xbe, 0x4b, 0xcc, 0x5d, 0xbf,
  0x28, 0xfd, 0xa3, 0x3f, 0x7c, 0x13, 0x4c, 0xbf, 0x08, 0x1d, 0x13, 0xbf,
  0x53, 0x75, 0x8d, 0x3f, 0xa0, 0x53, 0x06, 0xbf, 0xe2, 0x1d, 0x9b, 0xbf,
  0x6f, 0x72, 0xc2, 0xbf, 0x08, 0x6f, 0x03, 0xbf, 0xfe, 0xd3, 0xd3, 0xbe,
  0x03, 0x7f, 0xbf, 0xbe, 0x9e, 0xa6, 0xca, 0xbf, 0x2d, 0xd5, 0x97, 0xbf,
  0x57, 0x22, 0x92, 0x3f, 0x2b, 0xc1, 0xb7, 0x3f, 0xd6, 0xda, 0x8c, 0xbf,
  0x74, 0xce, 0x6b, 0xbf, 0xbe, 0x7c, 0x10, 0xbe, 0xad, 0x6a, 0x4d, 0xbe,
  0x40, 0x44, 0xd6, 0xbe, 0xae, 0xe5, 0x85, 0xbf, 0x2b, 0x7b, 0xc8, 0xbf,
  0x97, 0x13, 0x28, 0x3f, 0x5d, 0x0a, 0xe9, 0xbe, 0xc3, 0xeb, 0x43, 0x3f,
  0xcb, 0x8c, 0xd2, 0xbd, 0x9a, 0xb2, 0x39, 0xbf, 0xc0, 0x45, 0x81, 0xbe,
  0x26, 0x0b, 0x46, 0x3e, 0x39, 0x48, 0x1d, 0x3e, 0xfb, 0xab, 0x0e, 0xbe,
  0xa7, 0x8b, 0xe5, 0x3e, 0x4c, 0x99, 0xfa, 0x3e, 0x91, 0x13, 0xd3, 0x3e,
  0xd2, 0x7b, 0x5d, 0xbf, 0x57, 0xfd, 0x39, 0xbf, 0xd8, 0x5f, 0xa5, 0x3d,
  0x1b, 0x5b, 0xfa, 0x3e, 0xa7, 0x70, 0x05, 0xbe, 0xc0, 0x46, 0x23, 0xbf,
  0xf2, 0xb7, 0x0f, 0x3f, 0xaa, 0xeb, 0x8a, 0xbe, 0xde, 0x7d, 0x89, 0x3f,
  0x5a, 0xde, 0x14, 0xbf, 0x82, 0x6f, 0x57, 0x3f, 0xbc, 0xea, 0x57, 0x3e,
  0xe4, 0x67, 0x81, 0xbe, 0x46, 0xea, 0xff, 0xff, 0x10, 0x00, 0x00, 0x00,
  0x08, 0x00, 0x00, 0x00, 0x14, 0x00, 0x00, 0x00, 0x38, 0x00, 0x00, 0x00,
  0x02, 0x00, 0x00, 0x00, 0x03, 0x00, 0x00, 0x00, 0x19, 0x00, 0x00, 0x00,
  0x20, 0x00, 0x00, 0x00, 0x63, 0x6e, 0x6e, 0x2d, 0x61, 0x63, 0x74, 0x69,
  0x76, 0x69, 0x74, 0x79, 0x2d, 0x6d, 0x6f, 0x64, 0x65, 0x6c, 0x2f, 0x4f,
  0x75, 0x74, 0x70, 0x75, 0x74, 0x2f, 0x4d, 0x61, 0x74, 0x4d, 0x75, 0x6c,
  0x00, 0x00, 0x00, 0x00, 0xb4, 0xe9, 0xff, 0xff, 0xb6, 0xea, 0xff, 0xff,
  0x04, 0x00, 0x00, 0x00, 0xc0, 0x12, 0x00, 0x00, 0x00, 0xc3, 0x08, 0xbc,
  0x16, 0x8c, 0xe8, 0x3d, 0xc9, 0x54, 0xaa, 0xbd, 0x79, 0x38, 0xb7, 0xbe,
  0x1f, 0x77, 0x0f, 0x3d, 0xfd, 0x87, 0xd7, 0xbd, 0x3d, 0x82, 0x72, 0x3e,
  0x6c, 0xcc, 0x42, 0x3e, 0x56, 0x5b, 0xb7, 0xbe, 0x45, 0xcd, 0x49, 0xbf,
  0x76, 0xc7, 0x12, 0x3e, 0x0c, 0x1d, 0x74, 0xbd, 0xce, 0xab, 0xb0, 0x3d,
  0x06, 0x4b, 0xc6, 0x3c, 0x6f, 0x19, 0x2d, 0xbf, 0xb4, 0xed, 0x26, 0xbf,
  0xa3, 0x88, 0xa5, 0x3d, 0xaf, 0xd3, 0xe9, 0xbe, 0xd5, 0xc5, 0x25, 0xbd,
  0x0b, 0xb5, 0x85, 0x3d, 0x38, 0x9f, 0xa2, 0xbd, 0x05, 0x01, 0xfa, 0xbe,
  0x38, 0x8a, 0xa4, 0x3d, 0x94, 0xe1, 0x34, 0xbe, 0x23, 0x7f, 0xc5, 0x3d,
  0x03, 0x39, 0x64, 0x3e, 0x73, 0x4b, 0x3f, 0xbe, 0x79, 0x64, 0xcd, 0xbe,
  0x97, 0x06, 0xd5, 0x3d, 0x2f, 0x48, 0x97, 0xbe, 0x36, 0x98, 0x31, 0x3e,
  0xbb, 0xf1, 0x4a, 0x3e, 0x39, 0x2a, 0xc2, 0xbe, 0xfc, 0xbb, 0xe2, 0xbe,
  0x7d, 0x13, 0x3b, 0x3e, 0x0c, 0x74, 0xa0, 0xbe, 0x43, 0xc4, 0x4a, 0x3e,
  0x2e, 0xd9, 0x82, 0x3d, 0xd8, 0xc8, 0x05, 0xbf, 0xee, 0xcb, 0x19, 0xbf,
  0xaa, 0x51, 0x43, 0x3c, 0xdf, 0x53, 0xaa, 0xbd, 0x53, 0x0c, 0x47, 0x3e,
  0xf5, 0xb7, 0x03, 0xbe, 0x7d, 0x5d, 0xe0, 0xbe, 0x8b, 0xa7, 0xfa, 0xbe,
  0xf1, 0xe7, 0x0b, 0x3d, 0xc0, 0xdd, 0x8b, 0xbe, 0x98, 0x9f, 0x02, 0xbe,
  0x8d, 0xca, 0x63, 0x3d, 0xb7, 0xaf, 0x71, 0xbd, 0x0b, 0x21, 0x3e, 0x3f,
  0x99, 0x1d, 0x75, 0x3b, 0x4c, 0x2f, 0x01, 0x3f, 0xf8, 0xa2, 0xfb, 0x3c,
  0xaa, 0x7a, 0x42, 0x3c, 0xb9, 0x1b, 0xfa, 0x3c, 0xe9, 0xe2, 0x2b, 0x3f,
  0x40, 0x11, 0xc6, 0x3d, 0x6e, 0x00, 0x07, 0x3f, 0x07, 0xa9, 0xf8, 0xbd,
  0x9a, 0x39, 0x64, 0xbd, 0xab, 0x63, 0x93, 0x3d, 0x55, 0xd1, 0x25, 0x3f,
  0x5a, 0x3f, 0xb3, 0x3d, 0xe5, 0x09, 0xce, 0x3e, 0xba, 0x10, 0x64, 0xbd,
  0x9f, 0x82, 0x4f, 0xbd, 0x0d, 0x42, 0xb8, 0xbc, 0x5a, 0x38, 0x26, 0x3f,
  0x48, 0xe3, 0xc3, 0xbd, 0xa4, 0x96, 0x86, 0x3e, 0xfb, 0xcf, 0x2b, 0xbd,
  0x93, 0x71, 0xbd, 0x3d, 0x37, 0x23, 0x50, 0xbd, 0x81, 0x08, 0xc2, 0x3e,
  0x8b, 0x03, 0xff, 0x3d, 0x84, 0x6f, 0x2c, 0x3e, 0x21, 0x35, 0xcf, 0x3c,
  0x37, 0xc8, 0x18, 0xbd, 0xf9, 0x10, 0xa0, 0x3d, 0x8f, 0x63, 0x35, 0x3f,
  0x09, 0xb8, 0xd8, 0x3d, 0x52, 0x43, 0xd5, 0x3e, 0xa3, 0x7b, 0xca, 0xbd,
  0x2d, 0xdb, 0x04, 0xbe, 0xb8, 0x93, 0x10, 0xbd, 0xc7, 0x84, 0x1e, 0x3f,
  0x79, 0x08, 0x50, 0xbd, 0xa7, 0x3b, 0x8a, 0xbd, 0x87, 0x01, 0x36, 0xbc,
  0x4a, 0x61, 0x89, 0xbd, 0xb1, 0x1d, 0xf1, 0xbc, 0xdb, 0xb0, 0x14, 0x3f,
  0x1d, 0x1f, 0xee, 0x3d, 0xb3, 0xe8, 0x9e, 0x3e, 0x26, 0x00, 0xac, 0x3d,
  0xbf, 0x21, 0x8c, 0x3c, 0x54, 0x08, 0xc1, 0xbe, 0xde, 0xd2, 0x1b, 0xbf,
  0x81, 0xd2, 0xad, 0x3d, 0xd8, 0xac, 0xe5, 0xbe, 0xb5, 0xa9, 0x07, 0x3e,
  0xb4, 0xcb, 0x92, 0x3d, 0xd7, 0x63, 0xd6, 0xbe, 0xb3, 0xda, 0xec, 0xbe,
  0xcd, 0xce, 0xfd, 0x3c, 0xfe, 0x6d, 0xc2, 0xbe, 0x45, 0x55, 0x0b, 0x3d,
  0x6b, 0x51, 0xd6, 0x3d, 0x5c, 0x27, 0xe5, 0xbe, 0x3a, 0xf4, 0x15, 0xbf,
  0x2e, 0xd3, 0xbf, 0x3d, 0xa4, 0x50, 0x30, 0xbe, 0xa7, 0x1e, 0x2b, 0x3d,
  0x92, 0x96, 0xf5, 0x3d, 0xe6, 0xfb, 0xd6, 0xbe, 0x6f, 0x05, 0xe7, 0xbe,
  0x90, 0x61, 0x0d, 0x3e, 0x70, 0x57, 0xbe, 0xbe, 0x9b, 0xfd, 0xa7, 0xbd,
  0x35, 0x97, 0x8a, 0x3e, 0x47, 0xc7, 0x3f, 0xbe, 0x17, 0x80, 0x05, 0xbf,
  0xd3, 0xe7, 0x90, 0x3d, 0xec, 0xb7, 0xab, 0xbe, 0x68, 0x71, 0x1a, 0x3e,
  0x81, 0x9c, 0xb3, 0x3d, 0xd5, 0xef, 0x86, 0xbe, 0x11, 0x95, 0xea, 0xbe,
  0x1d, 0x5a, 0x9d, 0x3d, 0x76, 0x39, 0x95, 0xbe, 0x6a, 0x12, 0x22, 0x3e,
  0xc8, 0xa8, 0xfa, 0x3c, 0x03, 0x80, 0x2b, 0xbe, 0x1b, 0xcb, 0xeb, 0xbe,
  0xd4, 0x02, 0x46, 0x3e, 0x71, 0x59, 0x4d, 0xbe, 0x66, 0x87, 0x35, 0xbd,
  0xae, 0x9f, 0x4d, 0x3e, 0x69, 0x9e, 0xb8, 0xbe, 0x76, 0x4d, 0x0c, 0xbf,
  0x41, 0x5a, 0xda, 0x3d, 0xa4, 0x68, 0x88, 0x3b, 0x4e, 0xba, 0x06, 0x3e,
  0x62, 0x90, 0x6c, 0x3d, 0x6c, 0xf4, 0x9c, 0xbc, 0xc2, 0x34, 0x6e, 0x3f,
  0xfd, 0x96, 0x11, 0xbe, 0x4b, 0x18, 0x28, 0x3e, 0xec, 0x27, 0x17, 0xbe,
  0x3f, 0xba, 0x19, 0x3e, 0x94, 0xfc, 0x94, 0xba, 0x06, 0xac, 0x91, 0x3f,
  0x10, 0xa6, 0xa7, 0x3d, 0x4b, 0xa8, 0x36, 0x3e, 0x45, 0x73, 0x9d, 0xbd,
  0x9a, 0x76, 0x31, 0xbd, 0xdb, 0xe5, 0xf3, 0xbc, 0xa9, 0xb4, 0x86, 0x3f,
  0xad, 0xcc, 0x05, 0x3e, 0xcc, 0x1b, 0x20, 0x3f, 0xec, 0x6a, 0xa4, 0xbd,
  0x06, 0x65, 0x08, 0x3e, 0x30, 0xbf, 0xc3, 0xbd, 0xf9, 0xee, 0x06, 0x3f,
  0xef, 0x9d, 0x4c, 0x3e, 0xa7, 0x82, 0x09, 0x3e, 0x2f, 0x60, 0x89, 0x3d,
  0x4c, 0xc9, 0xc3, 0xbd, 0xd2, 0x01, 0xa2, 0x3d, 0x7c, 0x96, 0x3a, 0x3f,
  0xa3, 0x7d, 0x28, 0x3e, 0x75, 0x52, 0x2a, 0x3e, 0x95, 0xbf, 0x99, 0xbd,
  0x50, 0x3b, 0xa1, 0x3c, 0x9a, 0x0c, 0x99, 0x3c, 0x75, 0xb6, 0x8f, 0x3f,
  0xbb, 0x66, 0x3c, 0x3e, 0xf7, 0xa8, 0xa4, 0x3e, 0x80, 0x2b, 0x45, 0xbd,
  0xbc, 0x28, 0xc4, 0x3d, 0xa9, 0xba, 0x4b, 0xbd, 0x54, 0xd6, 0x1d, 0x3f,
  0xbf, 0x53, 0x36, 0xbe, 0xa5, 0x90, 0x7e, 0x3e, 0x16, 0x39, 0xdc, 0x3c,
  0x7c, 0x18, 0xd1, 0xbd, 0xe0, 0x61, 0xb8, 0xbc, 0xe6, 0xd9, 0x1b, 0x3f,
  0x89, 0xad, 0x5c, 0x3d, 0x2b, 0x28, 0xcd, 0x3e, 0x58, 0xe8, 0x04, 0xbf,
  0x56, 0x4b, 0x07, 0xbf, 0xac, 0xc4, 0xbf, 0xbe, 0xc1, 0x13, 0x53, 0xbd,
  0x03, 0x93, 0x94, 0xbe, 0xe5, 0x57, 0x19, 0xbf, 0xc4, 0xbe, 0x73, 0xbe,
  0x90, 0x2d, 0x0d, 0xbf, 0xeb, 0xfe, 0xfe, 0xbe, 0xd7, 0x06, 0x64, 0xbe,
  0x37, 0xc8, 0x18, 0xbf, 0xc7, 0x7f, 0xf8, 0xbe, 0x2c, 0x93, 0xf7, 0xbe,
  0x99, 0xdd, 0xef, 0xbe, 0xfd, 0x2e, 0xb4, 0xbe, 0xf2, 0x44, 0x10, 0xbe,
  0x30, 0xbf, 0x80, 0xbe, 0x83, 0xdc, 0x49, 0xbf, 0x1d, 0x30, 0x86, 0xbe,
  0x35, 0x91, 0x98, 0xbe, 0x1b, 0x95, 0xb0, 0xbe, 0x8f, 0x35, 0xc7, 0xbe,
  0x74, 0x4b, 0x1a, 0xbf, 0x3d, 0x4d, 0xf8, 0xbe, 0x7e, 0x0b, 0xf4, 0xbe,
  0xa2, 0x0a, 0xbb, 0xbe, 0x7f, 0x86, 0x3a, 0xbf, 0xe0, 0xe9, 0x18, 0xbf,
  0x40, 0x94, 0x25, 0xbf, 0xb7, 0xb9, 0x09, 0xbf, 0x6e, 0xe9, 0x0e, 0xbf,
  0xbe, 0x2a, 0xa0, 0xbe, 0x9a, 0x8f, 0xb4, 0xbe, 0x7d, 0x1f, 0x32, 0xbe,
  0x8a, 0x45, 0x17, 0xbf, 0x38, 0x6c, 0x14, 0xbf, 0x9b, 0x37, 0x0c, 0xbf,
  0x0c, 0x99, 0x0c, 0xbf, 0x21, 0x78, 0x3e, 0xbf, 0xbd, 0xf3, 0xab, 0xbe,
  0x9c, 0xdc, 0xa0, 0xbe, 0x54, 0xe5, 0xb6, 0xbe, 0xa6, 0x4e, 0x98, 0xbe,
  0x1f, 0x73, 0x02, 0xbf, 0x96, 0x8c, 0xa1, 0xbe, 0xb9, 0x18, 0x9e, 0xbe,
  0xec, 0x6c, 0xcd, 0xbe, 0x09, 0x7d, 0x02, 0xbf, 0xab, 0xb4, 0x11, 0xbe,
  0xf0, 0xdc, 0x12, 0xbe, 0xdc, 0x28, 0xbd, 0x3c, 0xc4, 0x15, 0xd5, 0x3e,
  0x56, 0xe3, 0x76, 0x3d, 0xee, 0xf5, 0x04, 0x3f, 0x23, 0x2a, 0x23, 0xbe,
  0x5d, 0x8b, 0x74, 0xbe, 0x5c, 0x23, 0x03, 0xbe, 0xdb, 0x41, 0xe1, 0x3e,
  0x5a, 0x52, 0x13, 0xbe, 0x49, 0xd5, 0xf1, 0x3e, 0x25, 0x21, 0xe2, 0x3d,
  0x61, 0xa0, 0xe7, 0x3d, 0xbe, 0x39, 0x20, 0xbd, 0x8f, 0x2d, 0x1d, 0x3d,
  0x54, 0x3c, 0x6c, 0x3d, 0x14, 0x0c, 0x76, 0x3e, 0x1e, 0xa8, 0xaf, 0x3d,
  0x4b, 0x33, 0x99, 0x3c, 0x73, 0xb8, 0x0b, 0x3e, 0xea, 0x9a, 0x41, 0x3f,
  0xce, 0x97, 0x59, 0xbc, 0xcb, 0xe1, 0x0b, 0x3f, 0x80, 0x04, 0x75, 0xbe,
  0xb8, 0x06, 0x7e, 0xbe, 0x09, 0x3b, 0x14, 0xbd, 0xdc, 0x6a, 0x33, 0x3e,
  0x2e, 0xba, 0x94, 0x3d, 0x6c, 0x85, 0x06, 0x3f, 0x21, 0x4b, 0xba, 0xbd,
  0xf8, 0x61, 0x15, 0xbd, 0x56, 0xe0, 0xd7, 0xbd, 0x9e, 0x89, 0x5e, 0x3e,
  0xdd, 0xf5, 0x49, 0x3e, 0x67, 0xf4, 0x83, 0x3e, 0x82, 0x99, 0xc0, 0x3d,
  0x1f, 0x66, 0x45, 0x3d, 0xb4, 0x33, 0x8c, 0xbc, 0x8e, 0xb0, 0x24, 0x3f,
  0x53, 0xed, 0x16, 0x3e, 0x83, 0x90, 0x2f, 0x3e, 0xda, 0xfa, 0x70, 0xbd,
  0x4c, 0x92, 0xff, 0xbd, 0x2f, 0x13, 0x97, 0xbc, 0x4c, 0xf4, 0x3e, 0x3f,
  0x7a, 0xd1, 0x23, 0xbc, 0x7d, 0xdc, 0x8c, 0x3e, 0x0e, 0x38, 0x4c, 0x3c,
  0xe0, 0x72, 0xba, 0x3c, 0x65, 0x6f, 0x27, 0x3e, 0x8a, 0xf8, 0x43, 0x3f,
  0x6e, 0xcb, 0x80, 0x3d, 0xf8, 0xe7, 0x63, 0x3e, 0x5c, 0x9f, 0xab, 0x3d,
  0xfa, 0x07, 0x83, 0x3d, 0x27, 0x27, 0xfb, 0x3d, 0x5e, 0xa5, 0x6b, 0x3f,
  0xc7, 0x50, 0x22, 0x3c, 0x49, 0x11, 0xc8, 0x3d, 0x1f, 0x82, 0xd5, 0x3d,
  0xaf, 0x19, 0xf0, 0x3d, 0x4e, 0x31, 0xb3, 0x3e, 0x52, 0x2f, 0x54, 0x3f,
  0x6f, 0xc8, 0x1d, 0xbb, 0x12, 0xe5, 0x33, 0x3f, 0xc5, 0x8d, 0x17, 0x3c,
  0x7c, 0x80, 0x61, 0x3d, 0xc7, 0x7a, 0x82, 0xbc, 0xcb, 0x01, 0xe3, 0x3e,
  0x35, 0x65, 0x04, 0xbe, 0xbd, 0x39, 0xe2, 0x3d, 0x33, 0xdc, 0x9d, 0xbd,
  0xf4, 0x00, 0x06, 0xbe, 0x42, 0x5e, 0x28, 0xbe, 0x39, 0xa9, 0xd3, 0x3e,
  0xc9, 0x22, 0xba, 0x3d, 0xea, 0x50, 0x01, 0x3f, 0xdc, 0x08, 0xb2, 0xbb,
  0x44, 0x3f, 0x54, 0x3c, 0x1c, 0x26, 0x23, 0xbd, 0x40, 0xa3, 0xfb, 0x3e,
  0x12, 0xf9, 0x1c, 0x3e, 0xf3, 0x91, 0xab, 0x3e, 0xc1, 0xdf, 0x2d, 0xbe,
  0xa8, 0x56, 0x22, 0x3d, 0x25, 0x9a, 0x83, 0x3d, 0x7f, 0x4d, 0xf1, 0x3e,
  0x5b, 0xbf, 0x45, 0x3e, 0xfa, 0x24, 0xa6, 0xbb, 0xf1, 0x55, 0x02, 0x3e,
  0xc1, 0xe1, 0x13, 0xbe, 0x73, 0xc4, 0xfc, 0x3d, 0x32, 0x98, 0x1a, 0x3f,
  0x7e, 0x59, 0xe6, 0x3d, 0x70, 0x8e, 0x85, 0x3e, 0xe6, 0x60, 0x50, 0xbc,
  0x94, 0x20, 0x9d, 0xbe, 0xc0, 0x16, 0x06, 0x3e, 0x71, 0x3d, 0xae, 0xbe,
  0x64, 0xf4, 0xb5, 0xbe, 0x59, 0x6d, 0xae, 0xbe, 0x8f, 0xed, 0x50, 0xbe,
  0xd5, 0x84, 0x30, 0xbe, 0xfe, 0xcf, 0x74, 0x3e, 0x47, 0x11, 0x80, 0xbe,
  0xfc, 0x38, 0x79, 0xbe, 0xb5, 0x58, 0x9e, 0xbe, 0x24, 0x94, 0xda, 0xbd,
  0x0b, 0x60, 0x94, 0xba, 0xaf, 0x0f, 0xfd, 0x3d, 0x41, 0x40, 0xcc, 0xbe,
  0x50, 0x93, 0xc0, 0xbe, 0xcc, 0x26, 0x53, 0xbe, 0x4b, 0xa6, 0x8f, 0x3b,
  0x0e, 0x67, 0x30, 0xbe, 0xb2, 0xb1, 0x9d, 0x3d, 0xce, 0x56, 0x96, 0xbe,
  0xf2, 0xbe, 0xcc, 0xbe, 0x5e, 0x48, 0xab, 0xbe, 0x2f, 0x50, 0x25, 0xbe,
  0x5e, 0x9a, 0x86, 0xbe, 0xdc, 0x4f, 0xe4, 0x3d, 0xdb, 0x01, 0x19, 0xbf,
  0xb0, 0x18, 0x97, 0xbe, 0x77, 0x99, 0x8e, 0xbe, 0x7f, 0xc1, 0x09, 0x3d,
  0x04, 0x4a, 0x81, 0xbe, 0x6a, 0x92, 0x1d, 0x3e, 0xb3, 0x54, 0xdf, 0xbe,
  0xd4, 0x4a, 0xb7, 0xbe, 0x5c, 0xfa, 0xa8, 0xbe, 0xfd, 0xc5, 0x6b, 0xbe,
  0x95, 0x09, 0x8a, 0xbe, 0x52, 0xda, 0x03, 0x3e, 0xc5, 0xe9, 0x0c, 0xbf,
  0xc9, 0x7a, 0xa6, 0xbe, 0xfa, 0xbb, 0x35, 0xbe, 0xec, 0x98, 0xbf, 0xbc,
  0x1c, 0xd0, 0xac, 0xbe, 0xce, 0x31, 0x54, 0x3e, 0x95, 0xcd, 0xf7, 0xbe,
  0x30, 0x15, 0x5a, 0xbe, 0x73, 0x17, 0x25, 0xbe, 0xfa, 0xee, 0xbe, 0x3d,
  0x8a, 0x19, 0x86, 0x3d, 0x72, 0xb9, 0x4d, 0xbd, 0x21, 0x5b, 0x43, 0x3f,
  0x44, 0xe9, 0x21, 0x3e, 0xa9, 0x34, 0x0f, 0x3d, 0x7a, 0x3f, 0x0a, 0x3e,
  0xd8, 0x56, 0xe0, 0x3d, 0xd7, 0xc6, 0xec, 0x3d, 0xf9, 0xd2, 0x3b, 0x3f,
  0x5c, 0x99, 0x2b, 0xbe, 0xfd, 0xbb, 0x95, 0xbc, 0xef, 0x7c, 0x45, 0xbe,
  0x90, 0x79, 0x3e, 0xbe, 0x30, 0xa2, 0x26, 0xbd, 0x19, 0x87, 0x74, 0x3f,
  0x8a, 0xbd, 0x89, 0xbd, 0x8a, 0x56, 0x98, 0x3e, 0xff, 0x8c, 0x28, 0xbe,
  0x19, 0x5d, 0x26, 0xbe, 0xc8, 0x7f, 0x02, 0xbe, 0xdd, 0xb0, 0xe9, 0x3e,
  0x64, 0x26, 0x73, 0x3e, 0xf6, 0x1b, 0xac, 0x3e, 0x7a, 0x67, 0xac, 0x3d,
  0xfb, 0x7f, 0x47, 0x3e, 0x2d, 0x78, 0x4c, 0x3d, 0x59, 0x7a, 0x4d, 0x3f,
  0x35, 0xa2, 0x5f, 0x3d, 0x14, 0xb7, 0x08, 0x3e, 0x99, 0x72, 0xad, 0xbd,
  0x11, 0x73, 0x17, 0xbd, 0x25, 0xde, 0xff, 0x3d, 0x45, 0x12, 0xdb, 0x3e,
  0xdf, 0x66, 0xf5, 0x3c, 0x65, 0x8d, 0x34, 0x3e, 0x0a, 0xec, 0x90, 0xbe,
  0x17, 0x0e, 0x3d, 0xbe, 0x56, 0x66, 0xcc, 0xbc, 0xef, 0x33, 0x33, 0x3f,
  0xba, 0xd9, 0x6e, 0x3e, 0x18, 0x4a, 0x84, 0x3e, 0x26, 0x2b, 0x3a, 0xbb,
  0x6b, 0x0c, 0x9b, 0xbd, 0x6b, 0x34, 0x97, 0xbd, 0x9e, 0x2b, 0xfa, 0x3e,
  0xd9, 0x6b, 0xa4, 0xbc, 0xa3, 0xf9, 0xf4, 0x3e, 0x6a, 0x5d, 0xac, 0x3d,
  0xfb, 0x66, 0x3d, 0x3e, 0xee, 0x3c, 0xbd, 0x3e, 0x58, 0xfe, 0x57, 0x3f,
  0xa7, 0x35, 0xdf, 0x3c, 0xd4, 0x1c, 0x04, 0x3f, 0x6b, 0x56, 0xc7, 0x3e,
  0x85, 0xb8, 0xd2, 0x3d, 0x06, 0x68, 0xe6, 0x3e, 0x4b, 0x0b, 0x36, 0x3f,
  0xb8, 0x73, 0xef, 0x3e, 0xab, 0xa2, 0x95, 0x3e, 0x21, 0x79, 0xed, 0x3e,
  0x21, 0x0f, 0xc7, 0x3d, 0x37, 0x68, 0x02, 0x3f, 0xd8, 0xd3, 0x00, 0x3f,
  0x55, 0x52, 0x8f, 0x3e, 0x0b, 0x91, 0x22, 0x3f, 0x0e, 0x05, 0x2d, 0x3d,
  0xe3, 0xd3, 0x47, 0x3e, 0xa5, 0x99, 0x1c, 0x3e, 0xb9, 0x4b, 0x10, 0x3f,
  0x2e, 0xfe, 0xb1, 0x3e, 0xfb, 0xe1, 0xc0, 0x3e, 0x5a, 0x19, 0xde, 0x3e,
  0x4b, 0xfa, 0x83, 0x3e, 0xca, 0x73, 0x69, 0x3e, 0x5c, 0x0c, 0x54, 0x3f,
  0x8b, 0x93, 0x8f, 0x3e, 0x34, 0x07, 0xea, 0x3e, 0x1a, 0x03, 0xf3, 0x3d,
  0x97, 0x4e, 0x22, 0x3e, 0x5e, 0x26, 0xf7, 0x3e, 0x93, 0x96, 0x3d, 0x3f,
  0xac, 0x8b, 0xe5, 0x3e, 0x0f, 0x9d, 0xce, 0x3e, 0x91, 0x8c, 0xa9, 0x3e,
  0xbd, 0xb5, 0xd2, 0xbd, 0x80, 0x73, 0x80, 0x3e, 0xa3, 0xe4, 0x5e, 0x3f,
  0xf8, 0xef, 0xde, 0x3d, 0x89, 0xd4, 0x3e, 0x3f, 0x7e, 0x7d, 0x36, 0x3e,
  0x7e, 0xd8, 0xf3, 0x3d, 0x11, 0xa2, 0x9f, 0x3e, 0x4a, 0x9f, 0x44, 0x3f,
  0xfa, 0x1f, 0xdf, 0x3e, 0xfd, 0xf0, 0xe9, 0x3e, 0x45, 0xee, 0xd6, 0x3e,
  0xf7, 0x45, 0xe9, 0x3e, 0xaa, 0x93, 0xe8, 0x3e, 0x6d, 0x74, 0x5c, 0x3e,
  0x51, 0x70, 0x00, 0x3f, 0x7e, 0x74, 0x18, 0x3f, 0xf2, 0xb7, 0xaa, 0x3e,
  0x83, 0x6e, 0x1e, 0x3f, 0xf7, 0x3b, 0xe8, 0x3e, 0xcd, 0x28, 0xb1, 0xbd,
  0xee, 0xa8, 0xbf, 0x3e, 0xc9, 0x16, 0xcb, 0x3e, 0xac, 0xc5, 0x6d, 0x3e,
  0x07, 0x76, 0x1d, 0x3f, 0xc5, 0x7b, 0xea, 0x3e, 0xe0, 0x97, 0xd3, 0xbd,
  0xb0, 0x40, 0x9d, 0x3e, 0x40, 0x00, 0x73, 0x3e, 0xea, 0xb8, 0x9d, 0x3e,
  0x63, 0x9a, 0xd1, 0x3e, 0x83, 0xb4, 0x07, 0x3f, 0x68, 0xd3, 0x4f, 0xba,
  0x98, 0xca, 0xae, 0x3e, 0x67, 0x63, 0x1d, 0x3f, 0xe2, 0x4e, 0xf1, 0x3e,
  0xee, 0x17, 0x33, 0x3f, 0x3d, 0xcd, 0xce, 0x3e, 0xbb, 0xfd, 0x51, 0xbd,
  0x7b, 0xd7, 0xdd, 0x3e, 0x36, 0xab, 0x0e, 0x3f, 0xe1, 0x35, 0xe6, 0x3e,
  0x83, 0xd9, 0x22, 0x3f, 0xb7, 0xef, 0xfc, 0x3e, 0xd5, 0xc3, 0xba, 0x3d,
  0xec, 0x68, 0xd9, 0x3d, 0x52, 0xcc, 0x17, 0x3f, 0xcd, 0x06, 0x17, 0x3f,
  0x66, 0x8e, 0xe7, 0x3e, 0x57, 0x67, 0xda, 0x3e, 0x80, 0x11, 0x83, 0x3e,
  0xe3, 0x0b, 0xa4, 0x3e, 0x07, 0x7f, 0x60, 0x3e, 0xfc, 0x88, 0x7d, 0x3e,
  0x08, 0x85, 0x1c, 0x3f, 0x4a, 0x9c, 0x40, 0x3f, 0xa7, 0xf6, 0x06, 0xbc,
  0x96, 0xb0, 0x10, 0x3e, 0xbb, 0xd4, 0x20, 0x3f, 0x45, 0x70, 0x05, 0x3e,
  0xb8, 0xfc, 0xf2, 0xbd, 0x87, 0x31, 0x77, 0x3e, 0xbe, 0xb2, 0xbf, 0x3e,
  0x12, 0xa5, 0x56, 0x3e, 0xc8, 0x5e, 0x2e, 0x3e, 0x73, 0xe8, 0x3b, 0x3e,
  0x99, 0xa7, 0x98, 0xbd, 0x13, 0xcb, 0x84, 0x3e, 0xbd, 0x76, 0x4c, 0x3f,
  0x71, 0x2e, 0x0c, 0x3e, 0x9e, 0xe2, 0xe6, 0x3e, 0xd2, 0x56, 0x8b, 0xbe,
  0x18, 0xf1, 0xb3, 0xbd, 0xce, 0xa3, 0x96, 0x3e, 0x9b, 0x78, 0xde, 0x3e,
  0xa0, 0xb0, 0x2c, 0x3e, 0xa6, 0x87, 0xea, 0x3e, 0xf1, 0xb5, 0x30, 0xbd,
  0xb3, 0x8b, 0x14, 0xbe, 0xf3, 0xe9, 0x99, 0x3e, 0x77, 0x58, 0x5a, 0x3e,
  0x0f, 0xe4, 0xad, 0x3e, 0x9b, 0xf3, 0xd1, 0x3e, 0x0a, 0x33, 0xa8, 0xbd,
  0x7b, 0x94, 0xb1, 0x3d, 0x01, 0xf0, 0x26, 0x3e, 0x19, 0xab, 0xdc, 0x3e,
  0xdd, 0xa3, 0x9a, 0x3d, 0x49, 0x00, 0x49, 0x3e, 0xd1, 0xfc, 0x13, 0x3e,
  0x9e, 0xe8, 0x08, 0xbe, 0x58, 0x24, 0xa4, 0x3e, 0xd6, 0x8a, 0x1b, 0x3f,
  0x24, 0xee, 0x8a, 0x3d, 0x77, 0xe0, 0x08, 0x3f, 0x52, 0x3d, 0x4e, 0xbe,
  0x99, 0xe5, 0x30, 0xbe, 0x4f, 0xcd, 0xa8, 0x3d, 0x16, 0x61, 0x28, 0x3f,
  0x9b, 0xa8, 0x87, 0x3c, 0xd1, 0x44, 0xa0, 0x3d, 0x80, 0x76, 0x53, 0x3e,
  0xe7, 0x88, 0x17, 0x3e, 0x9b, 0x62, 0x67, 0x3e, 0x93, 0x5e, 0xbb, 0x3e,
  0x17, 0x7a, 0x66, 0x3e, 0xc1, 0x75, 0xb1, 0x3e, 0xb7, 0x25, 0x9e, 0xbd,
  0x4f, 0x05, 0x81, 0x3b, 0x12, 0x1f, 0x61, 0x3d, 0xbb, 0xa1, 0x89, 0x3f,
  0x81, 0x7e, 0x2f, 0x3d, 0xb7, 0xa0, 0x06, 0x3e, 0x04, 0xf8, 0x97, 0xbe,
  0x00, 0x65, 0x87, 0xbe, 0x88, 0x25, 0x95, 0xbb, 0x9e, 0x24, 0x01, 0x3f,
  0x51, 0xca, 0x29, 0x3d, 0x79, 0x10, 0x8a, 0x3e, 0x18, 0xae, 0x12, 0xbd,
  0x9f, 0x59, 0x4c, 0xbd, 0x13, 0x85, 0x19, 0xbd, 0xdf, 0x5b, 0x39, 0x3f,
  0x90, 0x8f, 0x08, 0x3e, 0x81, 0xfc, 0x85, 0x3e, 0x21, 0x99, 0x57, 0x3c,
  0x65, 0x8f, 0x1c, 0x3e, 0x4b, 0x23, 0x1c, 0xbc, 0x76, 0x08, 0x72, 0x3f,
  0x9e, 0xcf, 0x0b, 0x3d, 0xa4, 0xbe, 0x5c, 0xbd, 0x12, 0xb0, 0xe0, 0xbd,
  0x6a, 0x5f, 0x18, 0xbe, 0xff, 0xaf, 0x8e, 0x3d, 0xa8, 0xc9, 0x54, 0x3f,
  0x7e, 0x7d, 0x2f, 0x3d, 0x83, 0x83, 0x82, 0x3d, 0xf4, 0x73, 0x72, 0xbe,
  0x67, 0x9e, 0x6c, 0xbe, 0xea, 0xf9, 0xa6, 0xbd, 0x4b, 0x75, 0xb6, 0x3e,
  0x57, 0x21, 0x0c, 0xbe, 0x89, 0x60, 0x48, 0xbd, 0x01, 0xcd, 0x3b, 0x3d,
  0x2a, 0xcb, 0x8a, 0x3d, 0xc1, 0xd8, 0x2b, 0xbd, 0xa5, 0xec, 0x3d, 0x3e,
  0x8b, 0xfa, 0xc0, 0x3d, 0x5d, 0xbb, 0x13, 0x3f, 0xaa, 0xbf, 0x32, 0x3b,
  0x2c, 0xf1, 0xa5, 0x3d, 0x93, 0xce, 0x87, 0x3d, 0xf5, 0xc4, 0x67, 0x3f,
  0x28, 0x2d, 0x2f, 0x3e, 0x20, 0xbe, 0x98, 0x3e, 0x7b, 0xb7, 0x03, 0x3d,
  0x8c, 0x52, 0x76, 0x3b, 0x65, 0xb0, 0xa0, 0xbb, 0x52, 0x10, 0x0a, 0x3f,
  0x07, 0x27, 0x4e, 0x3e, 0x7b, 0x3b, 0xc6, 0x3e, 0xec, 0xb5, 0x6a, 0xba,
  0x5a, 0x6d, 0x30, 0xbd, 0x88, 0x41, 0x93, 0x3d, 0xe7, 0x8e, 0x44, 0x3f,
  0x2e, 0x0e, 0x30, 0x3d, 0x28, 0x1b, 0xbf, 0x3e, 0x0c, 0xe9, 0x15, 0xbe,
  0x68, 0xcb, 0xcf, 0xbd, 0x35, 0xc7, 0xdf, 0xbc, 0x31, 0xd6, 0x8e, 0x3e,
  0x86, 0x0c, 0x1b, 0xbe, 0xce, 0xb7, 0x93, 0x3d, 0xa3, 0x33, 0x45, 0xbb,
  0xa1, 0x87, 0x80, 0x3d, 0x5d, 0xd9, 0x77, 0xbd, 0x89, 0x6f, 0x20, 0x3f,
  0x68, 0xe8, 0x15, 0x3e, 0xdf, 0xe5, 0x60, 0x3e, 0x6f, 0xd6, 0x37, 0xbd,
  0x07, 0xfb, 0x98, 0x3c, 0x6a, 0x44, 0x6d, 0x3d, 0x1b, 0x62, 0x77, 0x3f,
  0xa0, 0x66, 0xf9, 0x3d, 0x89, 0x79, 0x54, 0x3e, 0x35, 0xf1, 0x01, 0xbd,
  0x81, 0x5e, 0x09, 0xbe, 0x29, 0x7e, 0x9b, 0xbc, 0xcb, 0x98, 0x27, 0x3f,
  0x18, 0x85, 0x12, 0xbe, 0xa2, 0xf6, 0xf6, 0x3e, 0x29, 0xb0, 0x7d, 0xbd,
  0x31, 0xe9, 0x5a, 0xbd, 0xc3, 0xf9, 0x39, 0xbd, 0x70, 0x01, 0x01, 0x3f,
  0xaf, 0x19, 0x4f, 0xb9, 0x1e, 0x04, 0x02, 0x3e, 0x93, 0xd4, 0xce, 0x3d,
  0x89, 0xbb, 0xd9, 0x3d, 0x80, 0x27, 0x70, 0xbc, 0x88, 0x17, 0x01, 0x3f,
  0x14, 0xed, 0xb5, 0x3d, 0x8c, 0x5f, 0xc3, 0x3e, 0x93, 0xec, 0x13, 0x3f,
  0x11, 0x0f, 0x0d, 0x3f, 0x75, 0xa1, 0x0b, 0x3f, 0x3a, 0x6e, 0x92, 0xbd,
  0x98, 0x46, 0x2d, 0x3e, 0x84, 0x12, 0xc4, 0x3e, 0x5a, 0xef, 0xe6, 0x3e,
  0x4b, 0xd4, 0x2b, 0x3f, 0xfa, 0x31, 0x07, 0x3f, 0x29, 0x41, 0x21, 0xbe,
  0xe2, 0x1c, 0x75, 0x3e, 0x29, 0x8b, 0xb0, 0x3e, 0xc3, 0x4e, 0xdc, 0x3e,
  0x1b, 0x1a, 0x96, 0x3e, 0xb4, 0x53, 0xf9, 0x3e, 0xf8, 0x8f, 0xbf, 0xb9,
  0xb7, 0xc0, 0xe4, 0x3e, 0xf0, 0x82, 0x0e, 0x3e, 0xbc, 0x50, 0xdf, 0x3e,
  0xce, 0x01, 0x04, 0x3f, 0x76, 0x0d, 0x0d, 0x3f, 0x16, 0x00, 0x01, 0xbd,
  0x9a, 0x06, 0x30, 0x3e, 0xde, 0xb1, 0x0b, 0x3f, 0x61, 0xee, 0x8f, 0x3e,
  0xe0, 0xe4, 0x0e, 0x3f, 0xb8, 0xa3, 0xfb, 0x3e, 0xd2, 0xd5, 0xe8, 0xbd,
  0x85, 0xcd, 0x7a, 0x3e, 0x7e, 0x9b, 0x03, 0x3e, 0x34, 0x79, 0xeb, 0x3e,
  0xe8, 0x53, 0xeb, 0x3e, 0xe2, 0xba, 0xf9, 0x3e, 0x6b, 0x36, 0x0c, 0x3e,
  0x2e, 0x40, 0xc9, 0x3e, 0xa2, 0x18, 0x80, 0x3e, 0x73, 0x35, 0xae, 0x3e,
  0x1e, 0x9f, 0x41, 0x3f, 0x31, 0x84, 0x43, 0x3f, 0x87, 0x78, 0xbe, 0x39,
  0x59, 0xd3, 0xc8, 0x3e, 0x89, 0x24, 0x39, 0x3e, 0x4e, 0xf9, 0xe6, 0x3e,
  0x7d, 0xf4, 0x50, 0x3f, 0x5a, 0x54, 0xba, 0x3e, 0xeb, 0x6a, 0xb6, 0x3a,
  0x03, 0x24, 0x45, 0x3e, 0x43, 0x50, 0x06, 0x3e, 0x9f, 0xbe, 0xda, 0x3e,
  0x5a, 0x8b, 0x1a, 0x3f, 0x74, 0x5c, 0xab, 0x3e, 0xb0, 0x13, 0xfd, 0x3e,
  0x5f, 0xce, 0x93, 0x3e, 0x37, 0x9c, 0xac, 0x3e, 0x57, 0x8f, 0xf8, 0x3e,
  0xb0, 0xc3, 0xae, 0x3e, 0xb6, 0x19, 0xe4, 0x3e, 0xdc, 0xad, 0x58, 0x3f,
  0xc6, 0x92, 0x4c, 0x3e, 0xae, 0x6b, 0x47, 0x3f, 0xf9, 0xda, 0x3f, 0x3e,
  0xe9, 0xb9, 0x0a, 0x3f, 0xf9, 0x2f, 0x42, 0x3f, 0x02, 0xc3, 0x4b, 0x3f,
  0x50, 0x91, 0x36, 0x3e, 0x26, 0x30, 0x54, 0x3f, 0x03, 0x69, 0x97, 0x3e,
  0x91, 0xc8, 0x91, 0x3e, 0x8e, 0x4a, 0x1c, 0x3f, 0x81, 0x2f, 0x48, 0x3f,
  0x80, 0x69, 0xfb, 0x3e, 0x0d, 0x99, 0x16, 0x3f, 0x71, 0x72, 0xca, 0x3e,
  0xfa, 0xf4, 0xb4, 0x3e, 0xec, 0xb0, 0xda, 0x3e, 0xb4, 0xf9, 0x57, 0x3f,
  0xdb, 0x02, 0x45, 0x3e, 0xe3, 0xb0, 0xa0, 0x3e, 0xa5, 0x3b, 0xbd, 0x3e,
  0x0c, 0xb8, 0xac, 0x3e, 0x45, 0x54, 0x20, 0x3f, 0xc5, 0x58, 0x7a, 0x3f,
  0xaf, 0x57, 0x94, 0x3e, 0x7f, 0x64, 0xea, 0x3e, 0x7a, 0x0c, 0x99, 0x3e,
  0x96, 0xae, 0x92, 0x3e, 0x78, 0x77, 0x36, 0x3f, 0x34, 0x5a, 0x15, 0x3f,
  0x9f, 0x11, 0x8e, 0x3e, 0x5a, 0x80, 0x94, 0x3e, 0x50, 0xd2, 0x94, 0x3e,
  0x93, 0x21, 0x29, 0x3f, 0xa4, 0x7a, 0xd2, 0x3e, 0x35, 0x28, 0x31, 0x3f,
  0x71, 0x60, 0x9f, 0x3e, 0x59, 0xad, 0xbe, 0x3e, 0x54, 0xcc, 0xb7, 0xbd,
  0x92, 0xcb, 0xf0, 0x3d, 0xa9, 0x4c, 0x71, 0xbd, 0x0a, 0x9e, 0x59, 0xbe,
  0x4d, 0xb4, 0xca, 0xbe, 0x40, 0xe4, 0x59, 0xbd, 0x23, 0x0d, 0xc8, 0xbd,
  0xa4, 0xf4, 0xb3, 0xbe, 0x19, 0x76, 0xa9, 0xbd, 0x4a, 0x10, 0xf5, 0xbe,
  0xad, 0x32, 0xad, 0xbe, 0xd6, 0xe5, 0x0d, 0xbe, 0x0a, 0x4e, 0xad, 0xbc,
  0x55, 0x96, 0xb6, 0xbe, 0x2b, 0xc8, 0x21, 0x3e, 0x48, 0xdc, 0x2c, 0xbe,
  0x0e, 0x1e, 0xb9, 0xbe, 0xe6, 0x2e, 0x80, 0xbe, 0xcf, 0xe5, 0x6f, 0xbe,
  0xe8, 0xae, 0xdd, 0xbd, 0x21, 0x0b, 0x41, 0x3e, 0x2c, 0xcc, 0x60, 0xbe,
  0x5f, 0x38, 0x5b, 0xbe, 0x3e, 0x36, 0x00, 0xbd, 0xe3, 0x14, 0xdf, 0xbd,
  0xea, 0xc8, 0x5e, 0xbe, 0xc0, 0x6a, 0x87, 0xbe, 0x48, 0x69, 0xfd, 0xbe,
  0xa1, 0x3e, 0x99, 0xbe, 0xb7, 0x9f, 0x24, 0xbe, 0xa2, 0xf7, 0x49, 0xbe,
  0xa6, 0xca, 0xb2, 0xbe, 0x5e, 0xc6, 0xc5, 0x3d, 0x59, 0x57, 0xac, 0xbe,
  0x64, 0x39, 0xbf, 0xbe, 0xe3, 0xee, 0xdd, 0xbe, 0x37, 0x76, 0x14, 0xbd,
  0xbc, 0xc5, 0x1d, 0xbd, 0xe8, 0x76, 0xd6, 0x3d, 0xe9, 0x52, 0x75, 0xbe,
  0x3c, 0xe7, 0x67, 0xbe, 0xd9, 0xa6, 0xd0, 0x3c, 0x16, 0x4d, 0x02, 0xbc,
  0x81, 0x52, 0xd6, 0x3d, 0x03, 0xa0, 0xd1, 0x3c, 0x4e, 0x1a, 0x9a, 0xbe,
  0xb0, 0x94, 0xa7, 0xbe, 0x50, 0x05, 0x3f, 0xbe, 0x37, 0xd0, 0x88, 0xbe,
  0xa0, 0x99, 0xf7, 0xbe, 0x28, 0x5d, 0x17, 0xbf, 0x1f, 0xac, 0x0a, 0xbf,
  0x2e, 0x2d, 0x08, 0xbf, 0x9a, 0xc8, 0x09, 0xbf, 0xf3, 0x5f, 0x90, 0xbe,
  0xe2, 0x34, 0x8a, 0xbe, 0x6b, 0x2c, 0x3a, 0xbf, 0xa9, 0x97, 0x0a, 0xbe,
  0x22, 0x65, 0xb9, 0xbe, 0xc1, 0x7e, 0x44, 0xbe, 0xc1, 0x99, 0xa8, 0xbe,
  0xeb, 0x73, 0xa1, 0xbe, 0xf2, 0x33, 0xdf, 0xbe, 0xbb, 0xed, 0xe9, 0xbe,
  0x26, 0xd2, 0xf5, 0xbe, 0xd0, 0x66, 0x02, 0xbf, 0x98, 0xd4, 0x07, 0xbf,
  0xbe, 0xa7, 0x1a, 0xbf, 0xe5, 0xaa, 0x11, 0xbf, 0xcc, 0xa6, 0xd6, 0xbe,
  0x57, 0x30, 0xa4, 0xbe, 0xfe, 0xed, 0x31, 0xbf, 0xc4, 0x14, 0xcf, 0xbe,
  0x68, 0x4d, 0x0b, 0xbf, 0x76, 0x95, 0x24, 0xbf, 0x5f, 0xf6, 0xd8, 0xbe,
  0xcd, 0xf4, 0x4b, 0xbe, 0x8d, 0x80, 0x26, 0xbf, 0x68, 0x00, 0xf5, 0xbe,
  0x30, 0xd8, 0xf2, 0xbe, 0x71, 0x35, 0x1a, 0xbf, 0xf9, 0x3a, 0xd1, 0xbe,
  0x99, 0x7a, 0x97, 0xbe, 0x04, 0x4d, 0xb2, 0xbe, 0xde, 0x1c, 0xfb, 0xbe,
  0xf3, 0xef, 0x96, 0xbe, 0x7d, 0xf6, 0x20, 0xbf, 0x30, 0x6b, 0x04, 0xbf,
  0xb3, 0x9e, 0x08, 0xbf, 0x36, 0x7d, 0xf9, 0xbe, 0x38, 0x0e, 0xcb, 0xbe,
  0x7a, 0x05, 0xca, 0xbe, 0xe0, 0xc4, 0x10, 0xbf, 0xe7, 0x7e, 0xc0, 0xbe,
  0x93, 0x60, 0x91, 0xbe, 0xfe, 0xc0, 0x58, 0xbe, 0x28, 0x86, 0xb5, 0xbd,
  0xd0, 0x40, 0x4f, 0xbe, 0xba, 0xe8, 0x84, 0x3e, 0xf4, 0xea, 0x88, 0xbe,
  0xb5, 0x98, 0xcb, 0xbe, 0xba, 0xb3, 0xa6, 0xbd, 0xdf, 0x12, 0xb1, 0x3d,
  0x2a, 0x3d, 0x2d, 0xbe, 0x1a, 0x65, 0x7f, 0x3e, 0x68, 0x60, 0xa2, 0xbe,
  0xb0, 0xc6, 0xb0, 0xbe, 0x04, 0x17, 0x47, 0xbd, 0x38, 0xd7, 0xe1, 0xbd,
  0x2f, 0xab, 0x2c, 0xbe, 0x25, 0xc5, 0x5e, 0x3e, 0x55, 0xb4, 0xd5, 0xbe,
  0x7f, 0xf3, 0xd4, 0xbe, 0x32, 0x76, 0x65, 0xbe, 0x61, 0x9b, 0x93, 0xbd,
  0x4f, 0xe0, 0xe2, 0xbd, 0x35, 0x2e, 0x90, 0x3e, 0xee, 0x94, 0x2f, 0xbe,
  0xae, 0x1d, 0xb3, 0xbe, 0x08, 0x48, 0x14, 0xbe, 0x57, 0xa7, 0x18, 0xbd,
  0xc4, 0xd3, 0x0c, 0xbd, 0x64, 0xc2, 0xa5, 0x3e, 0x73, 0x7b, 0xc6, 0xbe,
  0xaf, 0x21, 0xbd, 0xbe, 0xfe, 0xbf, 0x07, 0xbe, 0xf0, 0x68, 0x77, 0xbd,
  0xb9, 0xe2, 0x01, 0x3d, 0x8c, 0x42, 0x98, 0x3e, 0xf6, 0xbb, 0x86, 0xbe,
  0x88, 0x98, 0xb2, 0xbe, 0x53, 0x41, 0x3a, 0xbd, 0x62, 0x74, 0x50, 0xbe,
  0x00, 0x83, 0xa3, 0x3c, 0x89, 0xc8, 0x1e, 0x3e, 0xac, 0x1e, 0x6a, 0xbe,
  0xf2, 0x44, 0xb9, 0xbe, 0xa9, 0x25, 0x0a, 0xbe, 0x0e, 0xd0, 0x38, 0xbd,
  0x9b, 0x98, 0x31, 0xbe, 0x87, 0x2e, 0xad, 0x3e, 0x4e, 0x0c, 0x44, 0xbe,
  0x62, 0xf9, 0xc2, 0xbe, 0x67, 0x27, 0x6e, 0x3c, 0xd8, 0xf5, 0x40, 0x3b,
  0x9a, 0x6c, 0x6b, 0xbe, 0x21, 0xee, 0x35, 0x3e, 0x39, 0x59, 0x1f, 0x3f,
  0x7f, 0xbd, 0x28, 0xbd, 0xc1, 0x57, 0x96, 0x3e, 0x78, 0x8e, 0x2d, 0xbe,
  0x2c, 0x06, 0x19, 0xbe, 0x90, 0x4a, 0xd5, 0xbc, 0x03, 0x33, 0xe9, 0x3e,
  0xfb, 0x98, 0x65, 0xbc, 0x0a, 0x30, 0x53, 0x3e, 0x67, 0x65, 0x35, 0x3e,
  0xe3, 0x89, 0x93, 0x3d, 0x46, 0xfb, 0x2e, 0xbd, 0xa4, 0x26, 0x52, 0x3f,
  0xb4, 0xdc, 0x07, 0x3d, 0xc9, 0x99, 0x31, 0x3e, 0xda, 0x52, 0xfc, 0xbd,
  0x80, 0x02, 0xea, 0xbb, 0xed, 0xb1, 0x20, 0x3e, 0x98, 0xf9, 0x74, 0x3f,
  0x60, 0x52, 0x8b, 0x3e, 0xa9, 0xd8, 0x07, 0x3f, 0x4f, 0x9c, 0x43, 0x3c,
  0xa4, 0xb8, 0x07, 0xbe, 0x66, 0xf2, 0xd5, 0xbd, 0xc1, 0x55, 0x0d, 0x3e,
  0x00, 0x39, 0x85, 0xbe, 0x00, 0xf5, 0x4f, 0xbc, 0xd8, 0x85, 0x08, 0x3e,
  0x68, 0xe1, 0x90, 0x3d, 0xf7, 0xbe, 0x43, 0xbe, 0x14, 0xc1, 0x10, 0x3f,
  0xa9, 0xff, 0xd3, 0x3d, 0x15, 0xe0, 0xf1, 0x3e, 0xbe, 0x9a, 0xca, 0x3d,
  0xc1, 0x24, 0x00, 0xbd, 0x80, 0x9b, 0x8e, 0x3d, 0x2a, 0x6b, 0x47, 0x3f,
  0x7f, 0x41, 0xf1, 0x3d, 0x35, 0x41, 0x2d, 0x3f, 0x0c, 0xd5, 0xae, 0xbe,
  0xae, 0xa2, 0xab, 0xbe, 0x8e, 0xcf, 0x21, 0xbe, 0x13, 0x3f, 0x2d, 0x3f,
  0xa2, 0x35, 0x28, 0x3e, 0x01, 0xe8, 0xa3, 0x3e, 0xb8, 0x4c, 0x2e, 0x3e,
  0x86, 0x7b, 0xab, 0x3d, 0x47, 0x34, 0xf9, 0xbe, 0x9e, 0x16, 0xb6, 0xbe,
  0x66, 0xe2, 0x1f, 0x3e, 0xc5, 0xb1, 0xca, 0xbe, 0x90, 0x03, 0x74, 0x3d,
  0x09, 0xa6, 0x2e, 0x3e, 0xbd, 0xf3, 0x18, 0xbf, 0x46, 0x6b, 0x25, 0xbf,
  0x6f, 0x73, 0xbe, 0x3d, 0xe6, 0xa1, 0x5a, 0xbe, 0x14, 0xb4, 0xe9, 0x3d,
  0x49, 0x12, 0xe7, 0x3d, 0xfd, 0x8e, 0xcc, 0xbe, 0x56, 0xa4, 0x2a, 0xbf,
  0x2b, 0xc8, 0xfc, 0x3d, 0xb3, 0xe8, 0x05, 0xbe, 0xae, 0x2d, 0xd4, 0x3d,
  0xdd, 0xde, 0x23, 0x3e, 0x4a, 0x39, 0x1c, 0xbf, 0x22, 0x6e, 0xe3, 0xbe,
  0xe1, 0x87, 0x22, 0x3e, 0x48, 0xf4, 0xb9, 0xbe, 0x2b, 0x1e, 0xdf, 0xbb,
  0x81, 0x7d, 0x2d, 0x3d, 0xcd, 0x78, 0x33, 0xbf, 0x62, 0xc7, 0x17, 0xbf,
  0x50, 0x41, 0xf3, 0x3d, 0x47, 0x59, 0xdc, 0xbe, 0xe5, 0xa6, 0x2d, 0x3d,
  0xe7, 0xe2, 0x40, 0x3e, 0x8c, 0xd9, 0x2e, 0xbf, 0x25, 0x5b, 0xec, 0xbe,
  0xea, 0xf2, 0xc5, 0x3d, 0x1d, 0x3a, 0xe7, 0xbe, 0x0a, 0x76, 0x80, 0x3c,
  0xd3, 0x65, 0x2b, 0x3e, 0x9b, 0x2e, 0x1e, 0xbf, 0xf8, 0x60, 0x21, 0xbf,
  0x11, 0x7b, 0x29, 0x3e, 0x4a, 0x6b, 0x49, 0xbe, 0xac, 0xd8, 0x93, 0x3d,
  0xe8, 0x32, 0x13, 0x3d, 0x2f, 0x17, 0xe9, 0xbe, 0x19, 0x02, 0xd2, 0xbe,
  0x0e, 0x24, 0x11, 0x3e, 0xd4, 0x44, 0x8e, 0xbe, 0x77, 0x2b, 0x00, 0xbe,
  0x1d, 0xc7, 0xd9, 0xbd, 0xf7, 0x3b, 0x2e, 0xbd, 0x00, 0x36, 0x8c, 0x3e,
  0xd5, 0x85, 0xaa, 0x3d, 0xaa, 0xc9, 0x14, 0x3e, 0xad, 0x07, 0xd5, 0x3d,
  0x5d, 0xed, 0x1b, 0x3e, 0xcc, 0xc3, 0x42, 0x3c, 0x8c, 0x91, 0xba, 0x3e,
  0x19, 0xa5, 0x46, 0x3e, 0x3e, 0x0b, 0x7a, 0x3d, 0x41, 0xad, 0x82, 0xbd,
  0x79, 0x34, 0xe5, 0x3c, 0xa8, 0x2b, 0xc8, 0x3d, 0x16, 0xdd, 0x80, 0x3f,
  0xf5, 0x00, 0x3a, 0x3e, 0x94, 0x04, 0x67, 0x3e, 0x41, 0xaa, 0x4c, 0xbe,
  0x1a, 0x8a, 0x6d, 0xbe, 0x43, 0x1b, 0x98, 0xbd, 0x98, 0x20, 0x08, 0x3f,
  0x02, 0xcc, 0x02, 0xbd, 0x7f, 0x7c, 0x9c, 0x3e, 0x9b, 0x24, 0x8d, 0xbd,
  0x82, 0xab, 0x4b, 0x3c, 0x5c, 0x9d, 0x69, 0xbd, 0xa4, 0x70, 0x3e, 0x3f,
  0x83, 0x51, 0x67, 0xbd, 0x44, 0x0c, 0x2c, 0x3e, 0x4a, 0x8e, 0xbd, 0x3d,
  0xfa, 0x99, 0xaf, 0x3d, 0x1d, 0x04, 0xd4, 0x3c, 0x10, 0xbd, 0x79, 0x3f,
  0xc4, 0x6a, 0xd4, 0x3d, 0x5c, 0x99, 0xb4, 0x3e, 0xd4, 0x17, 0xcf, 0xbd,
  0x63, 0x39, 0x27, 0xbe, 0x42, 0x27, 0xae, 0x3d, 0x0e, 0xf7, 0x32, 0x3f,
  0x63, 0xad, 0x1c, 0x3e, 0xaf, 0xb1, 0xf2, 0x3e, 0xac, 0x49, 0x0d, 0xbe,
  0x3d, 0xa6, 0xf0, 0xbc, 0x85, 0x49, 0x06, 0xbd, 0xfa, 0x1a, 0x18, 0x3f,
  0x8d, 0xc1, 0x07, 0xbe, 0xa6, 0x31, 0x00, 0xbc, 0x15, 0x40, 0xaa, 0x3b,
  0xd0, 0xb0, 0x4c, 0x3e, 0x80, 0xab, 0x34, 0xbf, 0xb7, 0xee, 0x0c, 0xbf,
  0x9c, 0x89, 0x07, 0x3e, 0x07, 0xdb, 0x9f, 0xbe, 0xd6, 0x3d, 0x91, 0x3a,
  0xc7, 0x59, 0x1a, 0x3e, 0x59, 0xaa, 0x23, 0xbf, 0xd7, 0x32, 0x20, 0xbf,
  0xac, 0x0a, 0x0c, 0x3e, 0xff, 0xd8, 0x7a, 0xbe, 0xc0, 0x32, 0x9c, 0x3d,
  0x63, 0x7e, 0x80, 0x3e, 0xf8, 0x37, 0x15, 0xbf, 0x75, 0x61, 0x07, 0xbf,
  0x12, 0x54, 0x8d, 0x3d, 0x0c, 0xe1, 0x1b, 0xbe, 0x99, 0x1e, 0x95, 0x3d,
  0x9f, 0x57, 0x0c, 0x3e, 0x13, 0xa0, 0x0b, 0xbf, 0x1f, 0x83, 0x1f, 0xbf,
  0x10, 0xbb, 0xf0, 0x3d, 0x92, 0x63, 0x9c, 0xbe, 0x07, 0x91, 0x9b, 0x3d,
  0x73, 0xcc, 0x91, 0x3d, 0x64, 0xc0, 0x0d, 0xbf, 0x8d, 0xc8, 0x26, 0xbf,
  0x31, 0xbe, 0xcd, 0x3d, 0x8a, 0x1b, 0x16, 0xbf, 0xc5, 0x1a, 0xaa, 0x3d,
  0xe3, 0x89, 0x3c, 0x3e, 0xfc, 0xc9, 0x24, 0xbf, 0x4d, 0xfd, 0x38, 0xbf,
  0x33, 0xfb, 0xfd, 0x3d, 0xe6, 0x39, 0x62, 0xbe, 0x20, 0x05, 0x77, 0x3d,
  0xab, 0xa7, 0x55, 0x3e, 0xac, 0xc7, 0x28, 0xbf, 0x69, 0x79, 0xf5, 0xbe,
  0x61, 0xa1, 0x3e, 0x3e, 0x62, 0x34, 0xd3, 0xbe, 0x51, 0xed, 0xa4, 0x3c,
  0x9e, 0xa7, 0x74, 0x3e, 0x99, 0xd8, 0x1d, 0xbf, 0xee, 0xd0, 0x1a, 0xbf,
  0xd7, 0x20, 0xf0, 0x3d, 0x6a, 0x35, 0x8f, 0xbe, 0x95, 0xe0, 0x07, 0x3f,
  0x8d, 0xfb, 0xe8, 0x3e, 0x95, 0xf3, 0x0e, 0x3e, 0x46, 0x9c, 0x36, 0xbe,
  0x96, 0x21, 0xd3, 0x3e, 0xfc, 0x34, 0x0b, 0x3c, 0x58, 0x8e, 0x22, 0x3e,
  0x62, 0x24, 0xf1, 0x3e, 0xd3, 0x9f, 0xc0, 0x3e, 0x95, 0x08, 0xe8, 0xbd,
  0xfb, 0xc9, 0x0c, 0x3e, 0x95, 0x3b, 0x29, 0x3e, 0xa5, 0x89, 0x6c, 0x3e,
  0x56, 0xd5, 0x59, 0x3e, 0x5a, 0xcb, 0x18, 0x3e, 0x0a, 0x6b, 0xd9, 0xbe,
  0x57, 0xbe, 0x46, 0x3e, 0xe7, 0x67, 0x60, 0x3d, 0xf5, 0x7f, 0x88, 0x3e,
  0xab, 0x74, 0x8b, 0x3e, 0x2a, 0x79, 0xe8, 0x3e, 0xb3, 0x59, 0x13, 0xbe,
  0x29, 0x6f, 0xae, 0x3d, 0x77, 0x2d, 0x8d, 0x3e, 0xf0, 0xe1, 0xca, 0x3e,
  0x20, 0x76, 0xdd, 0x3e, 0x34, 0x1a, 0xef, 0x3e, 0x66, 0xc0, 0x01, 0xbe,
  0x84, 0x9f, 0x31, 0x3e, 0xd4, 0x87, 0x89, 0x3e, 0x1e, 0x35, 0x80, 0x3e,
  0x1e, 0x52, 0x9a, 0x3e, 0xd4, 0x9d, 0xfc, 0x3c, 0xad, 0x08, 0xee, 0xbe,
  0xef, 0x93, 0x93, 0x3e, 0xc7, 0x94, 0x89, 0x3e, 0x44, 0x7d, 0x06, 0x3e,
  0xdf, 0x58, 0xb1, 0x3e, 0x78, 0x5a, 0xaa, 0x3e, 0x6d, 0xc1, 0x8f, 0xbd,
  0xad, 0xab, 0xfc, 0x3d, 0x68, 0xef, 0xd5, 0xbd, 0x7e, 0x5b, 0x00, 0x3f,
  0xf5, 0x1f, 0x0f, 0x3f, 0x34, 0x48, 0x9b, 0x3e, 0x5f, 0x59, 0x02, 0xbf,
  0x39, 0x6a, 0xc5, 0x3e, 0x29, 0x06, 0xee, 0xbd, 0x07, 0xc9, 0x11, 0x3f,
  0xaa, 0x83, 0xdc, 0x3e, 0xf1, 0x66, 0x29, 0x3f, 0xb1, 0xa4, 0x12, 0xbc,
  0x5c, 0x7a, 0xf3, 0x3e, 0x06, 0x77, 0x23, 0x3e, 0x9d, 0x0e, 0xef, 0x3e,
  0xbc, 0x3b, 0x26, 0x3f, 0xb3, 0xba, 0x0e, 0x3f, 0xb9, 0x6c, 0xe4, 0x3d,
  0x3a, 0x85, 0xc2, 0x3e, 0x41, 0x14, 0x38, 0x3e, 0xdb, 0xd0, 0x2e, 0x3f,
  0x4b, 0x0e, 0x37, 0x3f, 0x0e, 0x95, 0x28, 0x3f, 0xa6, 0xa1, 0xeb, 0x3e,
  0xba, 0xac, 0xbc, 0x3e, 0xb3, 0x76, 0x29, 0x3f, 0x4c, 0xe6, 0x05, 0x3f,
  0x90, 0xef, 0x41, 0x3f, 0x26, 0xfe, 0x55, 0x3f, 0xad, 0xb6, 0x9e, 0x3c,
  0x4b, 0x0a, 0xba, 0x3e, 0xeb, 0x8a, 0xb0, 0x3e, 0x75, 0x5c, 0xd5, 0x3e,
  0x98, 0x9f, 0xc9, 0x3e, 0x5b, 0xd7, 0x52, 0x3f, 0x6f, 0x96, 0xc2, 0x3e,
  0x7c, 0x98, 0x09, 0x3f, 0x75, 0xe9, 0x9e, 0x3e, 0xdf, 0x0d, 0x35, 0x3f,
  0xe0, 0x86, 0x23, 0x3f, 0x91, 0x21, 0x3a, 0x3f, 0x28, 0x67, 0xa6, 0xbd,
  0x6c, 0xb4, 0x87, 0x3e, 0x4a, 0xd1, 0x28, 0x3f, 0xdb, 0xb7, 0xa2, 0x3e,
  0x44, 0x74, 0x4d, 0x3f, 0xaa, 0xfd, 0xe5, 0x3e, 0xa2, 0xef, 0x8e, 0x3e,
  0xb5, 0x83, 0xd6, 0x3d, 0xe5, 0x83, 0x14, 0x3f, 0x87, 0xc6, 0x0f, 0x3f,
  0x49, 0x92, 0xd2, 0x3e, 0x7a, 0x55, 0x36, 0x3f, 0x83, 0x95, 0xf6, 0x39,
  0x4f, 0x7d, 0x27, 0x3f, 0x7e, 0xce, 0xa2, 0x3e, 0x5e, 0xfd, 0xff, 0xff,
  0x10, 0x00, 0x00, 0x00, 0x07, 0x00, 0x00, 0x00, 0x14, 0x00, 0x00, 0x00,
  0x38, 0x00, 0x00, 0x00, 0x02, 0x00, 0x00, 0x00, 0x19, 0x00, 0x00, 0x00,
  0x30, 0x00, 0x00, 0x00, 0x20, 0x00, 0x00, 0x00, 0x63, 0x6e, 0x6e, 0x2d,
  0x61, 0x63, 0x74, 0x69, 0x76, 0x69, 0x74, 0x79, 0x2d, 0x6d, 0x6f, 0x64,
  0x65, 0x6c, 0x2f, 0x44, 0x65, 0x6e, 0x73, 0x65, 0x31, 0x2f, 0x4d, 0x61,
  0x74, 0x4d, 0x75, 0x6c, 0x00, 0x00, 0x00, 0x00, 0xcc, 0xfc, 0xff, 0xff,
  0xce, 0xfd, 0xff, 0xff, 0x04, 0x00, 0x00, 0x00, 0x08, 0x00, 0x00, 0x00,
  0xff, 0xff, 0xff, 0xff, 0x30, 0x00, 0x00, 0x00, 0x00, 0x00, 0x0e, 0x00,
  0x18, 0x00, 0x08, 0x00, 0x07, 0x00, 0x0c, 0x00, 0x10, 0x00, 0x14, 0x00,
  0x0e, 0x00, 0x00, 0x00, 0x00, 0x00, 0x00, 0x02, 0x10, 0x00, 0x00, 0x00,
  0x06, 0x00, 0x00, 0x00, 0x10, 0x00, 0x00, 0x00, 0x34, 0x00, 0x00, 0x00,
  0x01, 0x00, 0x00, 0x00, 0x02, 0x00, 0x00, 0x00, 0x20, 0x00, 0x00, 0x00,
  0x63, 0x6e, 0x6e, 0x2d, 0x61, 0x63, 0x74, 0x69, 0x76, 0x69, 0x74, 0x79,
  0x2d, 0x6d, 0x6f, 0x64, 0x65, 0x6c, 0x2f, 0x66, 0x6c, 0x61, 0x74, 0x74,
  0x65, 0x6e, 0x2f, 0x43, 0x6f, 0x6e, 0x73, 0x74, 0x00, 0x00, 0x00, 0x00,
  0x3c, 0xfd, 0xff, 0xff, 0x3e, 0xfe, 0xff, 0xff, 0x04, 0x00, 0x00, 0x00,
  0x0c, 0x00, 0x00, 0x00, 0xaf, 0x74, 0x24, 0xbf, 0x07, 0xba, 0x6c, 0x3f,
  0xaf, 0xb0, 0x0b, 0xbe, 0x32, 0xfe, 0xff, 0xff, 0x10, 0x00, 0x00, 0x00,
  0x05, 0x00, 0x00, 0x00, 0x10, 0x00, 0x00, 0x00, 0x4c, 0x00, 0x00, 0x00,
  0x01, 0x00, 0x00, 0x00, 0x03, 0x00, 0x00, 0x00, 0x39, 0x00, 0x00, 0x00,
  0x63, 0x6e, 0x6e, 0x2d, 0x61, 0x63, 0x74, 0x69, 0x76, 0x69, 0x74, 0x79,
  0x2d, 0x6d, 0x6f, 0x64, 0x65, 0x6c, 0x2f, 0x4f, 0x75, 0x74, 0x70, 0x75,
  0x74, 0x2f, 0x42, 0x69, 0x61, 0x73, 0x41, 0x64, 0x64, 0x2f, 0x52, 0x65,
  0x61, 0x64, 0x56, 0x61, 0x72, 0x69, 0x61, 0x62, 0x6c, 0x65, 0x4f, 0x70,
  0x2f, 0x72, 0x65, 0x73, 0x6f, 0x75, 0x72, 0x63, 0x65, 0x00, 0x00, 0x00,
  0xb4, 0xfd, 0xff, 0xff, 0xb6, 0xfe, 0xff, 0xff, 0x04, 0x00, 0x00, 0x00,
  0x64, 0x00, 0x00, 0x00, 0x4d, 0x30, 0x55, 0xbc, 0xa2, 0x7b, 0xf2, 0xbd,
  0x16, 0xc9, 0x08, 0xbc, 0x6b, 0x23, 0x09, 0xbd, 0x67, 0xae, 0x38, 0x3f,
  0xae, 0xfa, 0x68, 0xbd, 0x10, 0x48, 0xd3, 0xbb, 0x7b, 0x58, 0x45, 0x3f,
  0x0b, 0x84, 0x04, 0xbe, 0xec, 0x9a, 0xc9, 0xba, 0xa4, 0x19, 0x97, 0xbb,
  0x53, 0xac, 0x1b, 0xbb, 0x7f, 0xf5, 0x2a, 0xbe, 0xfb, 0xf8, 0xde, 0xbd,
  0x4e, 0x44, 0x33, 0xbb, 0xf5, 0x14, 0x6f, 0xbb, 0xd5, 0xf4, 0x41, 0x3f,
  0x3c, 0x33, 0x37, 0x3f, 0x96, 0xbd, 0x4b, 0xbb, 0xa6, 0x5d, 0xec, 0xbc,
  0xd5, 0x0d, 0x4c, 0xbc, 0xb6, 0xca, 0x27, 0xbe, 0xc6, 0x7f, 0xdb, 0x3a,
  0x95, 0x7d, 0x0c, 0xbb, 0x39, 0x20, 0x08, 0xbb, 0x02, 0xff, 0xff, 0xff,
  0x10, 0x00, 0x00, 0x00, 0x04, 0x00, 0x00, 0x00, 0x10, 0x00, 0x00, 0x00,
  0x4c, 0x00, 0x00, 0x00, 0x01, 0x00, 0x00, 0x00, 0x19, 0x00, 0x00, 0x00,
  0x39, 0x00, 0x00, 0x00, 0x63, 0x6e, 0x6e, 0x2d, 0x61, 0x63, 0x74, 0x69,
  0x76, 0x69, 0x74, 0x79, 0x2d, 0x6d, 0x6f, 0x64, 0x65, 0x6c, 0x2f, 0x44,
  0x65, 0x6e, 0x73, 0x65, 0x31, 0x2f, 0x42, 0x69, 0x61, 0x73, 0x41, 0x64,
  0x64, 0x2f, 0x52, 0x65, 0x61, 0x64, 0x56, 0x61, 0x72, 0x69, 0x61, 0x62,
  0x6c, 0x65, 0x4f, 0x70, 0x2f, 0x72, 0x65, 0x73, 0x6f, 0x75, 0x72, 0x63,
  0x65, 0x00, 0x00, 0x00, 0x84, 0xfe, 0xff, 0xff, 0x86, 0xff, 0xff, 0xff,
  0x04, 0x00, 0x00, 0x00, 0x08, 0x00, 0x00, 0x00, 0x0f, 0xa7, 0x13, 0xbe,
  0x80, 0xa0, 0xa4, 0xb7, 0x76, 0xff, 0xff, 0xff, 0x10, 0x00, 0x00, 0x00,
  0x03, 0x00, 0x00, 0x00, 0x10, 0x00, 0x00, 0x00, 0x50, 0x00, 0x00, 0x00,
  0x01, 0x00, 0x00, 0x00, 0x02, 0x00, 0x00, 0x00, 0x3b, 0x00, 0x00, 0x00,
  0x63, 0x6e, 0x6e, 0x2d, 0x61, 0x63, 0x74, 0x69, 0x76, 0x69, 0x74, 0x79,
  0x2d, 0x6d, 0x6f, 0x64, 0x65, 0x6c, 0x2f, 0x43, 0x6f, 0x6e, 0x76, 0x32,
  0x44, 0x2d, 0x32, 0x2f, 0x42, 0x69, 0x61, 0x73, 0x41, 0x64, 0x64, 0x2f,
  0x52, 0x65, 0x61, 0x64, 0x56, 0x61, 0x72, 0x69, 0x61, 0x62, 0x6c, 0x65,
  0x4f, 0x70, 0x2f, 0x72, 0x65, 0x73, 0x6f, 0x75, 0x72, 0x63, 0x65, 0x00,
  0x04, 0x00, 0x06, 0x00, 0x04, 0x00, 0x00, 0x00, 0x00, 0x00, 0x06, 0x00,
  0x08, 0x00, 0x04, 0x00, 0x06, 0x00, 0x00, 0x00, 0x04, 0x00, 0x00, 0x00,
  0x10, 0x00, 0x00, 0x00, 0x83, 0xa8, 0x9a, 0xbd, 0xa7, 0x39, 0x23, 0xbf,
  0xb7, 0x39, 0x21, 0xbe, 0x76, 0xb9, 0xe9, 0x3d, 0x00, 0x00, 0x0e, 0x00,
  0x14, 0x00, 0x04, 0x00, 0x00, 0x00, 0x08, 0x00, 0x0c, 0x00, 0x10, 0x00,
  0x0e, 0x00, 0x00, 0x00, 0x10, 0x00, 0x00, 0x00, 0x02, 0x00, 0x00, 0x00,
  0x10, 0x00, 0x00, 0x00, 0x4c, 0x00, 0x00, 0x00, 0x01, 0x00, 0x00, 0x00,
  0x04, 0x00, 0x00, 0x00, 0x3b, 0x00, 0x00, 0x00, 0x63, 0x6e, 0x6e, 0x2d,
  0x61, 0x63, 0x74, 0x69, 0x76, 0x69, 0x74, 0x79, 0x2d, 0x6d, 0x6f, 0x64,
  0x65, 0x6c, 0x2f, 0x43, 0x6f, 0x6e, 0x76, 0x32, 0x44, 0x2d, 0x31, 0x2f,
  0x42, 0x69, 0x61, 0x73, 0x41, 0x64, 0x64, 0x2f, 0x52, 0x65, 0x61, 0x64,
  0x56, 0x61, 0x72, 0x69, 0x61, 0x62, 0x6c, 0x65, 0x4f, 0x70, 0x2f, 0x72,
  0x65, 0x73, 0x6f, 0x75, 0x72, 0x63, 0x65, 0x00, 0x90, 0xff, 0xff, 0xff,
  0x14, 0x00, 0x18, 0x00, 0x04, 0x00, 0x00, 0x00, 0x08, 0x00, 0x0c, 0x00,
  0x10, 0x00, 0x00, 0x00, 0x00, 0x00, 0x14, 0x00, 0x14, 0x00, 0x00, 0x00,
  0x14, 0x00, 0x00, 0x00, 0x01, 0x00, 0x00, 0x00, 0x34, 0x00, 0x00, 0x00,
  0x44, 0x00, 0x00, 0x00, 0x18, 0x00, 0x00, 0x00, 0x04, 0x00, 0x00, 0x00,
  0x01, 0x00, 0x00, 0x00, 0x14, 0x00, 0x00, 0x00, 0x03, 0x00, 0x00, 0x00,
  0x01, 0x00, 0x00, 0x00, 0x04, 0x00, 0x00, 0x00, 0xff, 0xff, 0xff, 0xff,
  0x14, 0x00, 0x00, 0x00, 0x03, 0x00, 0x00, 0x00, 0x01, 0x00, 0x00, 0x00,
  0x0e, 0x00, 0x00, 0x00, 0x43, 0x6f, 0x6e, 0x76, 0x32, 0x44, 0x2d, 0x31,
  0x5f, 0x69, 0x6e, 0x70, 0x75, 0x74, 0x00, 0x00, 0xfc, 0xff, 0xff, 0xff,
  0x04, 0x00, 0x04, 0x00, 0x04, 0x00, 0x00, 0x00
};
